{
  "version": "1.0",
  "truncation": null,
  "padding": null,
  "added_tokens": [
    {
      "id": 0,
      "content": "[PAD]",
      "single_word": false,
      "lstrip": false,
      "rstrip": false,
      "normalized": false,
      "special": true
    },
    {
      "id": 1,
      "content": "[UNK]",
      "single_word": false,
      "lstrip": false,
      "rstrip": false,
      "normalized": false,
      "special": true
    },
    {
      "id": 2,
      "content": "[CLS]",
      "single_word": false,
      "lstrip": false,
      "rstrip": false,
      "normalized": false,
      "special": true
    },
    {
      "id": 3,
      "content": "[SEP]",
      "single_word": false,
      "lstrip": false,
      "rstrip": false,
      "normalized": false,
      "special": true
    },
    {
      "id": 4,
      "content": "[MASK]",
      "single_word": false,
      "lstrip": false,
      "rstrip": false,
      "normalized": false,
      "special": true
    }
  ],
  "normalizer": {
    "type": "BertNormalizer",
    "clean_text": true,
    "handle_chinese_chars": true,
    "strip_accents": null,
    "lowercase": true
  },
  "pre_tokenizer": {
    "type": "BertPreTokenizer"
  },
  "post_processor": {
    "type": "TemplateProcessing",
    "single": [
      {
        "SpecialToken": {
          "id": "[CLS]",
          "type_id": 0
        }
      },
      {
        "Sequence": {
          "id": "A",
          "type_id": 0
        }
      },
      {
        "SpecialToken": {
          "id": "[SEP]",
          "type_id": 0
        }
      }
    ],
    "pair": [
      {
        "SpecialToken": {
          "id": "[CLS]",
          "type_id": 0
        }
      },
      {
        "Sequence": {
          "id": "A",
          "type_id": 0
        }
      },
      {
        "SpecialToken": {
          "id": "[SEP]",
          "type_id": 0
        }
      },
      {
        "Sequence": {
          "id": "B",
          "type_id": 1
        }
      },
      {
        "SpecialToken": {
          "id": "[SEP]",
          "type_id": 1
        }
      }
    ],
    "special_tokens": {
      "[CLS]": {
        "id": "[CLS]",
        "ids": [
          2
        ],
        "tokens": [
          "[CLS]"
        ]
      },
      "[SEP]": {
        "id": "[SEP]",
        "ids": [
          3
        ],
        "tokens": [
          "[SEP]"
        ]
      }
    }
  },
  "decoder": {
    "type": "WordPiece",
    "prefix": "##",
    "cleanup": true
  },
  "model": {
    "type": "WordPiece",
    "unk_token": "[UNK]",
    "continuing_subword_prefix": "##",
    "max_input_chars_per_word": 100,
    "vocab": {
      "[PAD]": 0,
      "[UNK]": 1,
      "[CLS]": 2,
      "[SEP]": 3,
      "[MASK]": 4,
      "[unused0]": 5,
      "[unused1]": 6,
      "[unused2]": 7,
      "[unused3]": 8,
      "[unused4]": 9,
      "[unused5]": 10,
      "[unused6]": 11,
      "[unused7]": 12,
      "[unused8]": 13,
      "[unused9]": 14,
      "tok0000": 15,
      "tok0001": 16,
      "tok0002": 17,
      "tok0003": 18,
      "tok0004": 19,
      "tok0005": 20,
      "tok0006": 21,
      "tok0007": 22,
      "tok0008": 23,
      "tok0009": 24,
      "tok0010": 25,
      "tok0011": 26,
      "tok0012": 27,
      "tok0013": 28,
      "tok0014": 29,
      "tok0015": 30,
      "tok0016": 31,
      "tok0017": 32,
      "tok0018": 33,
      "tok0019": 34,
      "tok0020": 35,
      "tok0021": 36,
      "tok0022": 37,
      "tok0023": 38,
      "tok0024": 39,
      "tok0025": 40,
      "tok0026": 41,
      "tok0027": 42,
      "tok0028": 43,
      "tok0029": 44,
      "tok0030": 45,
      "tok0031": 46,
      "tok0032": 47,
      "tok0033": 48,
      "tok0034": 49,
      "tok0035": 50,
      "tok0036": 51,
      "tok0037": 52,
      "tok0038": 53,
      "tok0039": 54,
      "tok0040": 55,
      "tok0041": 56,
      "tok0042": 57,
      "tok0043": 58,
      "tok0044": 59,
      "tok0045": 60,
      "tok0046": 61,
      "tok0047": 62,
      "tok0048": 63,
      "tok0049": 64,
      "tok0050": 65,
      "tok0051": 66,
      "tok0052": 67,
      "tok0053": 68,
      "tok0054": 69,
      "tok0055": 70,
      "tok0056": 71,
      "tok0057": 72,
      "tok0058": 73,
      "tok0059": 74,
      "tok0060": 75,
      "tok0061": 76,
      "tok0062": 77,
      "tok0063": 78,
      "tok0064": 79,
      "tok0065": 80,
      "tok0066": 81,
      "tok0067": 82,
      "tok0068": 83,
      "tok0069": 84,
      "tok0070": 85,
      "tok0071": 86,
      "tok0072": 87,
      "tok0073": 88,
      "tok0074": 89,
      "tok0075": 90,
      "tok0076": 91,
      "tok0077": 92,
      "tok0078": 93,
      "tok0079": 94,
      "tok0080": 95,
      "tok0081": 96,
      "tok0082": 97,
      "tok0083": 98,
      "tok0084": 99,
      "tok0085": 100,
      "tok0086": 101,
      "tok0087": 102,
      "tok0088": 103,
      "tok0089": 104,
      "tok0090": 105,
      "tok0091": 106,
      "tok0092": 107,
      "tok0093": 108,
      "tok0094": 109,
      "tok0095": 110,
      "tok0096": 111,
      "tok0097": 112,
      "tok0098": 113,
      "tok0099": 114,
      "tok0100": 115,
      "tok0101": 116,
      "tok0102": 117,
      "tok0103": 118,
      "tok0104": 119,
      "tok0105": 120,
      "tok0106": 121,
      "tok0107": 122,
      "tok0108": 123,
      "tok0109": 124,
      "tok0110": 125,
      "tok0111": 126,
      "tok0112": 127,
      "tok0113": 128,
      "tok0114": 129,
      "tok0115": 130,
      "tok0116": 131,
      "tok0117": 132,
      "tok0118": 133,
      "tok0119": 134,
      "tok0120": 135,
      "tok0121": 136,
      "tok0122": 137,
      "tok0123": 138,
      "tok0124": 139,
      "tok0125": 140,
      "tok0126": 141,
      "tok0127": 142,
      "tok0128": 143,
      "tok0129": 144,
      "tok0130": 145,
      "tok0131": 146,
      "tok0132": 147,
      "tok0133": 148,
      "tok0134": 149,
      "tok0135": 150,
      "tok0136": 151,
      "tok0137": 152,
      "tok0138": 153,
      "tok0139": 154,
      "tok0140": 155,
      "tok0141": 156,
      "tok0142": 157,
      "tok0143": 158,
      "tok0144": 159,
      "tok0145": 160,
      "tok0146": 161,
      "tok0147": 162,
      "tok0148": 163,
      "tok0149": 164,
      "tok0150": 165,
      "tok0151": 166,
      "tok0152": 167,
      "tok0153": 168,
      "tok0154": 169,
      "tok0155": 170,
      "tok0156": 171,
      "tok0157": 172,
      "tok0158": 173,
      "tok0159": 174,
      "tok0160": 175,
      "tok0161": 176,
      "tok0162": 177,
      "tok0163": 178,
      "tok0164": 179,
      "tok0165": 180,
      "tok0166": 181,
      "tok0167": 182,
      "tok0168": 183,
      "tok0169": 184,
      "tok0170": 185,
      "tok0171": 186,
      "tok0172": 187,
      "tok0173": 188,
      "tok0174": 189,
      "tok0175": 190,
      "tok0176": 191,
      "tok0177": 192,
      "tok0178": 193,
      "tok0179": 194,
      "tok0180": 195,
      "tok0181": 196,
      "tok0182": 197,
      "tok0183": 198,
      "tok0184": 199,
      "tok0185": 200,
      "tok0186": 201,
      "tok0187": 202,
      "tok0188": 203,
      "tok0189": 204,
      "tok0190": 205,
      "tok0191": 206,
      "tok0192": 207,
      "tok0193": 208,
      "tok0194": 209,
      "tok0195": 210,
      "tok0196": 211,
      "tok0197": 212,
      "tok0198": 213,
      "tok0199": 214,
      "tok0200": 215,
      "tok0201": 216,
      "tok0202": 217,
      "tok0203": 218,
      "tok0204": 219,
      "tok0205": 220,
      "tok0206": 221,
      "tok0207": 222,
      "tok0208": 223,
      "tok0209": 224,
      "tok0210": 225,
      "tok0211": 226,
      "tok0212": 227,
      "tok0213": 228,
      "tok0214": 229,
      "tok0215": 230,
      "tok0216": 231,
      "tok0217": 232,
      "tok0218": 233,
      "tok0219": 234,
      "tok0220": 235,
      "tok0221": 236,
      "tok0222": 237,
      "tok0223": 238,
      "tok0224": 239,
      "tok0225": 240,
      "tok0226": 241,
      "tok0227": 242,
      "tok0228": 243,
      "tok0229": 244,
      "tok0230": 245,
      "tok0231": 246,
      "tok0232": 247,
      "tok0233": 248,
      "tok0234": 249,
      "tok0235": 250,
      "tok0236": 251,
      "tok0237": 252,
      "tok0238": 253,
      "tok0239": 254,
      "tok0240": 255,
      "tok0241": 256,
      "tok0242": 257,
      "tok0243": 258,
      "tok0244": 259,
      "tok0245": 260,
      "tok0246": 261,
      "tok0247": 262,
      "tok0248": 263,
      "tok0249": 264,
      "tok0250": 265,
      "tok0251": 266,
      "tok0252": 267,
      "tok0253": 268,
      "tok0254": 269,
      "tok0255": 270,
      "tok0256": 271,
      "tok0257": 272,
      "tok0258": 273,
      "tok0259": 274,
      "tok0260": 275,
      "tok0261": 276,
      "tok0262": 277,
      "tok0263": 278,
      "tok0264": 279,
      "tok0265": 280,
      "tok0266": 281,
      "tok0267": 282,
      "tok0268": 283,
      "tok0269": 284,
      "tok0270": 285,
      "tok0271": 286,
      "tok0272": 287,
      "tok0273": 288,
      "tok0274": 289,
      "tok0275": 290,
      "tok0276": 291,
      "tok0277": 292,
      "tok0278": 293,
      "tok0279": 294,
      "tok0280": 295,
      "tok0281": 296,
      "tok0282": 297,
      "tok0283": 298,
      "tok0284": 299,
      "tok0285": 300,
      "tok0286": 301,
      "tok0287": 302,
      "tok0288": 303,
      "tok0289": 304,
      "tok0290": 305,
      "tok0291": 306,
      "tok0292": 307,
      "tok0293": 308,
      "tok0294": 309,
      "tok0295": 310,
      "tok0296": 311,
      "tok0297": 312,
      "tok0298": 313,
      "tok0299": 314,
      "tok0300": 315,
      "tok0301": 316,
      "tok0302": 317,
      "tok0303": 318,
      "tok0304": 319,
      "tok0305": 320,
      "tok0306": 321,
      "tok0307": 322,
      "tok0308": 323,
      "tok0309": 324,
      "tok0310": 325,
      "tok0311": 326,
      "tok0312": 327,
      "tok0313": 328,
      "tok0314": 329,
      "tok0315": 330,
      "tok0316": 331,
      "tok0317": 332,
      "tok0318": 333,
      "tok0319": 334,
      "tok0320": 335,
      "tok0321": 336,
      "tok0322": 337,
      "tok0323": 338,
      "tok0324": 339,
      "tok0325": 340,
      "tok0326": 341,
      "tok0327": 342,
      "tok0328": 343,
      "tok0329": 344,
      "tok0330": 345,
      "tok0331": 346,
      "tok0332": 347,
      "tok0333": 348,
      "tok0334": 349,
      "tok0335": 350,
      "tok0336": 351,
      "tok0337": 352,
      "tok0338": 353,
      "tok0339": 354,
      "tok0340": 355,
      "tok0341": 356,
      "tok0342": 357,
      "tok0343": 358,
      "tok0344": 359,
      "tok0345": 360,
      "tok0346": 361,
      "tok0347": 362,
      "tok0348": 363,
      "tok0349": 364,
      "tok0350": 365,
      "tok0351": 366,
      "tok0352": 367,
      "tok0353": 368,
      "tok0354": 369,
      "tok0355": 370,
      "tok0356": 371,
      "tok0357": 372,
      "tok0358": 373,
      "tok0359": 374,
      "tok0360": 375,
      "tok0361": 376,
      "tok0362": 377,
      "tok0363": 378,
      "tok0364": 379,
      "tok0365": 380,
      "tok0366": 381,
      "tok0367": 382,
      "tok0368": 383,
      "tok0369": 384,
      "tok0370": 385,
      "tok0371": 386,
      "tok0372": 387,
      "tok0373": 388,
      "tok0374": 389,
      "tok0375": 390,
      "tok0376": 391,
      "tok0377": 392,
      "tok0378": 393,
      "tok0379": 394,
      "tok0380": 395,
      "tok0381": 396,
      "tok0382": 397,
      "tok0383": 398,
      "tok0384": 399,
      "tok0385": 400,
      "tok0386": 401,
      "tok0387": 402,
      "tok0388": 403,
      "tok0389": 404,
      "tok0390": 405,
      "tok0391": 406,
      "tok0392": 407,
      "tok0393": 408,
      "tok0394": 409,
      "tok0395": 410,
      "tok0396": 411,
      "tok0397": 412,
      "tok0398": 413,
      "tok0399": 414,
      "tok0400": 415,
      "tok0401": 416,
      "tok0402": 417,
      "tok0403": 418,
      "tok0404": 419,
      "tok0405": 420,
      "tok0406": 421,
      "tok0407": 422,
      "tok0408": 423,
      "tok0409": 424,
      "tok0410": 425,
      "tok0411": 426,
      "tok0412": 427,
      "tok0413": 428,
      "tok0414": 429,
      "tok0415": 430,
      "tok0416": 431,
      "tok0417": 432,
      "tok0418": 433,
      "tok0419": 434,
      "tok0420": 435,
      "tok0421": 436,
      "tok0422": 437,
      "tok0423": 438,
      "tok0424": 439,
      "tok0425": 440,
      "tok0426": 441,
      "tok0427": 442,
      "tok0428": 443,
      "tok0429": 444,
      "tok0430": 445,
      "tok0431": 446,
      "tok0432": 447,
      "tok0433": 448,
      "tok0434": 449,
      "tok0435": 450,
      "tok0436": 451,
      "tok0437": 452,
      "tok0438": 453,
      "tok0439": 454,
      "tok0440": 455,
      "tok0441": 456,
      "tok0442": 457,
      "tok0443": 458,
      "tok0444": 459,
      "tok0445": 460,
      "tok0446": 461,
      "tok0447": 462,
      "tok0448": 463,
      "tok0449": 464,
      "tok0450": 465,
      "tok0451": 466,
      "tok0452": 467,
      "tok0453": 468,
      "tok0454": 469,
      "tok0455": 470,
      "tok0456": 471,
      "tok0457": 472,
      "tok0458": 473,
      "tok0459": 474,
      "tok0460": 475,
      "tok0461": 476,
      "tok0462": 477,
      "tok0463": 478,
      "tok0464": 479,
      "tok0465": 480,
      "tok0466": 481,
      "tok0467": 482,
      "tok0468": 483,
      "tok0469": 484,
      "tok0470": 485,
      "tok0471": 486,
      "tok0472": 487,
      "tok0473": 488,
      "tok0474": 489,
      "tok0475": 490,
      "tok0476": 491,
      "tok0477": 492,
      "tok0478": 493,
      "tok0479": 494,
      "tok0480": 495,
      "tok0481": 496,
      "tok0482": 497,
      "tok0483": 498,
      "tok0484": 499,
      "tok0485": 500,
      "tok0486": 501,
      "tok0487": 502,
      "tok0488": 503,
      "tok0489": 504,
      "tok0490": 505,
      "tok0491": 506,
      "tok0492": 507,
      "tok0493": 508,
      "tok0494": 509,
      "tok0495": 510,
      "tok0496": 511,
      "tok0497": 512,
      "tok0498": 513,
      "tok0499": 514,
      "tok0500": 515,
      "tok0501": 516,
      "tok0502": 517,
      "tok0503": 518,
      "tok0504": 519,
      "tok0505": 520,
      "tok0506": 521,
      "tok0507": 522,
      "tok0508": 523,
      "tok0509": 524,
      "tok0510": 525,
      "tok0511": 526,
      "tok0512": 527,
      "tok0513": 528,
      "tok0514": 529,
      "tok0515": 530,
      "tok0516": 531,
      "tok0517": 532,
      "tok0518": 533,
      "tok0519": 534,
      "tok0520": 535,
      "tok0521": 536,
      "tok0522": 537,
      "tok0523": 538,
      "tok0524": 539,
      "tok0525": 540,
      "tok0526": 541,
      "tok0527": 542,
      "tok0528": 543,
      "tok0529": 544,
      "tok0530": 545,
      "tok0531": 546,
      "tok0532": 547,
      "tok0533": 548,
      "tok0534": 549,
      "tok0535": 550,
      "tok0536": 551,
      "tok0537": 552,
      "tok0538": 553,
      "tok0539": 554,
      "tok0540": 555,
      "tok0541": 556,
      "tok0542": 557,
      "tok0543": 558,
      "tok0544": 559,
      "tok0545": 560,
      "tok0546": 561,
      "tok0547": 562,
      "tok0548": 563,
      "tok0549": 564,
      "tok0550": 565,
      "tok0551": 566,
      "tok0552": 567,
      "tok0553": 568,
      "tok0554": 569,
      "tok0555": 570,
      "tok0556": 571,
      "tok0557": 572,
      "tok0558": 573,
      "tok0559": 574,
      "tok0560": 575,
      "tok0561": 576,
      "tok0562": 577,
      "tok0563": 578,
      "tok0564": 579,
      "tok0565": 580,
      "tok0566": 581,
      "tok0567": 582,
      "tok0568": 583,
      "tok0569": 584,
      "tok0570": 585,
      "tok0571": 586,
      "tok0572": 587,
      "tok0573": 588,
      "tok0574": 589,
      "tok0575": 590,
      "tok0576": 591,
      "tok0577": 592,
      "tok0578": 593,
      "tok0579": 594,
      "tok0580": 595,
      "tok0581": 596,
      "tok0582": 597,
      "tok0583": 598,
      "tok0584": 599,
      "tok0585": 600,
      "tok0586": 601,
      "tok0587": 602,
      "tok0588": 603,
      "tok0589": 604,
      "tok0590": 605,
      "tok0591": 606,
      "tok0592": 607,
      "tok0593": 608,
      "tok0594": 609,
      "tok0595": 610,
      "tok0596": 611,
      "tok0597": 612,
      "tok0598": 613,
      "tok0599": 614,
      "tok0600": 615,
      "tok0601": 616,
      "tok0602": 617,
      "tok0603": 618,
      "tok0604": 619,
      "tok0605": 620,
      "tok0606": 621,
      "tok0607": 622,
      "tok0608": 623,
      "tok0609": 624,
      "tok0610": 625,
      "tok0611": 626,
      "tok0612": 627,
      "tok0613": 628,
      "tok0614": 629,
      "tok0615": 630,
      "tok0616": 631,
      "tok0617": 632,
      "tok0618": 633,
      "tok0619": 634,
      "tok0620": 635,
      "tok0621": 636,
      "tok0622": 637,
      "tok0623": 638,
      "tok0624": 639,
      "tok0625": 640,
      "tok0626": 641,
      "tok0627": 642,
      "tok0628": 643,
      "tok0629": 644,
      "tok0630": 645,
      "tok0631": 646,
      "tok0632": 647,
      "tok0633": 648,
      "tok0634": 649,
      "tok0635": 650,
      "tok0636": 651,
      "tok0637": 652,
      "tok0638": 653,
      "tok0639": 654,
      "tok0640": 655,
      "tok0641": 656,
      "tok0642": 657,
      "tok0643": 658,
      "tok0644": 659,
      "tok0645": 660,
      "tok0646": 661,
      "tok0647": 662,
      "tok0648": 663,
      "tok0649": 664,
      "tok0650": 665,
      "tok0651": 666,
      "tok0652": 667,
      "tok0653": 668,
      "tok0654": 669,
      "tok0655": 670,
      "tok0656": 671,
      "tok0657": 672,
      "tok0658": 673,
      "tok0659": 674,
      "tok0660": 675,
      "tok0661": 676,
      "tok0662": 677,
      "tok0663": 678,
      "tok0664": 679,
      "tok0665": 680,
      "tok0666": 681,
      "tok0667": 682,
      "tok0668": 683,
      "tok0669": 684,
      "tok0670": 685,
      "tok0671": 686,
      "tok0672": 687,
      "tok0673": 688,
      "tok0674": 689,
      "tok0675": 690,
      "tok0676": 691,
      "tok0677": 692,
      "tok0678": 693,
      "tok0679": 694,
      "tok0680": 695,
      "tok0681": 696,
      "tok0682": 697,
      "tok0683": 698,
      "tok0684": 699,
      "tok0685": 700,
      "tok0686": 701,
      "tok0687": 702,
      "tok0688": 703,
      "tok0689": 704,
      "tok0690": 705,
      "tok0691": 706,
      "tok0692": 707,
      "tok0693": 708,
      "tok0694": 709,
      "tok0695": 710,
      "tok0696": 711,
      "tok0697": 712,
      "tok0698": 713,
      "tok0699": 714,
      "tok0700": 715,
      "tok0701": 716,
      "tok0702": 717,
      "tok0703": 718,
      "tok0704": 719,
      "tok0705": 720,
      "tok0706": 721,
      "tok0707": 722,
      "tok0708": 723,
      "tok0709": 724,
      "tok0710": 725,
      "tok0711": 726,
      "tok0712": 727,
      "tok0713": 728,
      "tok0714": 729,
      "tok0715": 730,
      "tok0716": 731,
      "tok0717": 732,
      "tok0718": 733,
      "tok0719": 734,
      "tok0720": 735,
      "tok0721": 736,
      "tok0722": 737,
      "tok0723": 738,
      "tok0724": 739,
      "tok0725": 740,
      "tok0726": 741,
      "tok0727": 742,
      "tok0728": 743,
      "tok0729": 744,
      "tok0730": 745,
      "tok0731": 746,
      "tok0732": 747,
      "tok0733": 748,
      "tok0734": 749,
      "tok0735": 750,
      "tok0736": 751,
      "tok0737": 752,
      "tok0738": 753,
      "tok0739": 754,
      "tok0740": 755,
      "tok0741": 756,
      "tok0742": 757,
      "tok0743": 758,
      "tok0744": 759,
      "tok0745": 760,
      "tok0746": 761,
      "tok0747": 762,
      "tok0748": 763,
      "tok0749": 764,
      "tok0750": 765,
      "tok0751": 766,
      "tok0752": 767,
      "tok0753": 768,
      "tok0754": 769,
      "tok0755": 770,
      "tok0756": 771,
      "tok0757": 772,
      "tok0758": 773,
      "tok0759": 774,
      "tok0760": 775,
      "tok0761": 776,
      "tok0762": 777,
      "tok0763": 778,
      "tok0764": 779,
      "tok0765": 780,
      "tok0766": 781,
      "tok0767": 782,
      "tok0768": 783,
      "tok0769": 784,
      "tok0770": 785,
      "tok0771": 786,
      "tok0772": 787,
      "tok0773": 788,
      "tok0774": 789,
      "tok0775": 790,
      "tok0776": 791,
      "tok0777": 792,
      "tok0778": 793,
      "tok0779": 794,
      "tok0780": 795,
      "tok0781": 796,
      "tok0782": 797,
      "tok0783": 798,
      "tok0784": 799,
      "tok0785": 800,
      "tok0786": 801,
      "tok0787": 802,
      "tok0788": 803,
      "tok0789": 804,
      "tok0790": 805,
      "tok0791": 806,
      "tok0792": 807,
      "tok0793": 808,
      "tok0794": 809,
      "tok0795": 810,
      "tok0796": 811,
      "tok0797": 812,
      "tok0798": 813,
      "tok0799": 814,
      "tok0800": 815,
      "tok0801": 816,
      "tok0802": 817,
      "tok0803": 818,
      "tok0804": 819,
      "tok0805": 820,
      "tok0806": 821,
      "tok0807": 822,
      "tok0808": 823,
      "tok0809": 824,
      "tok0810": 825,
      "tok0811": 826,
      "tok0812": 827,
      "tok0813": 828,
      "tok0814": 829,
      "tok0815": 830,
      "tok0816": 831,
      "tok0817": 832,
      "tok0818": 833,
      "tok0819": 834,
      "tok0820": 835,
      "tok0821": 836,
      "tok0822": 837,
      "tok0823": 838,
      "tok0824": 839,
      "tok0825": 840,
      "tok0826": 841,
      "tok0827": 842,
      "tok0828": 843,
      "tok0829": 844,
      "tok0830": 845,
      "tok0831": 846,
      "tok0832": 847,
      "tok0833": 848,
      "tok0834": 849,
      "tok0835": 850,
      "tok0836": 851,
      "tok0837": 852,
      "tok0838": 853,
      "tok0839": 854,
      "tok0840": 855,
      "tok0841": 856,
      "tok0842": 857,
      "tok0843": 858,
      "tok0844": 859,
      "tok0845": 860,
      "tok0846": 861,
      "tok0847": 862,
      "tok0848": 863,
      "tok0849": 864,
      "tok0850": 865,
      "tok0851": 866,
      "tok0852": 867,
      "tok0853": 868,
      "tok0854": 869,
      "tok0855": 870,
      "tok0856": 871,
      "tok0857": 872,
      "tok0858": 873,
      "tok0859": 874,
      "tok0860": 875,
      "tok0861": 876,
      "tok0862": 877,
      "tok0863": 878,
      "tok0864": 879,
      "tok0865": 880,
      "tok0866": 881,
      "tok0867": 882,
      "tok0868": 883,
      "tok0869": 884,
      "tok0870": 885,
      "tok0871": 886,
      "tok0872": 887,
      "tok0873": 888,
      "tok0874": 889,
      "tok0875": 890,
      "tok0876": 891,
      "tok0877": 892,
      "tok0878": 893,
      "tok0879": 894,
      "tok0880": 895,
      "tok0881": 896,
      "tok0882": 897,
      "tok0883": 898,
      "tok0884": 899,
      "tok0885": 900,
      "tok0886": 901,
      "tok0887": 902,
      "tok0888": 903,
      "tok0889": 904,
      "tok0890": 905,
      "tok0891": 906,
      "tok0892": 907,
      "tok0893": 908,
      "tok0894": 909,
      "tok0895": 910,
      "tok0896": 911,
      "tok0897": 912,
      "tok0898": 913,
      "tok0899": 914,
      "tok0900": 915,
      "tok0901": 916,
      "tok0902": 917,
      "tok0903": 918,
      "tok0904": 919,
      "tok0905": 920,
      "tok0906": 921,
      "tok0907": 922,
      "tok0908": 923,
      "tok0909": 924,
      "tok0910": 925,
      "tok0911": 926,
      "tok0912": 927,
      "tok0913": 928,
      "tok0914": 929,
      "tok0915": 930,
      "tok0916": 931,
      "tok0917": 932,
      "tok0918": 933,
      "tok0919": 934,
      "tok0920": 935,
      "tok0921": 936,
      "tok0922": 937,
      "tok0923": 938,
      "tok0924": 939,
      "tok0925": 940,
      "tok0926": 941,
      "tok0927": 942,
      "tok0928": 943,
      "tok0929": 944,
      "tok0930": 945,
      "tok0931": 946,
      "tok0932": 947,
      "tok0933": 948,
      "tok0934": 949,
      "tok0935": 950,
      "tok0936": 951,
      "tok0937": 952,
      "tok0938": 953,
      "tok0939": 954,
      "tok0940": 955,
      "tok0941": 956,
      "tok0942": 957,
      "tok0943": 958,
      "tok0944": 959,
      "tok0945": 960,
      "tok0946": 961,
      "tok0947": 962,
      "tok0948": 963,
      "tok0949": 964,
      "tok0950": 965,
      "tok0951": 966,
      "tok0952": 967,
      "tok0953": 968,
      "tok0954": 969,
      "tok0955": 970,
      "tok0956": 971,
      "tok0957": 972,
      "tok0958": 973,
      "tok0959": 974,
      "tok0960": 975,
      "tok0961": 976,
      "tok0962": 977,
      "tok0963": 978,
      "tok0964": 979,
      "tok0965": 980,
      "tok0966": 981,
      "tok0967": 982,
      "tok0968": 983,
      "tok0969": 984,
      "tok0970": 985,
      "tok0971": 986,
      "tok0972": 987,
      "tok0973": 988,
      "tok0974": 989,
      "tok0975": 990,
      "tok0976": 991,
      "tok0977": 992,
      "tok0978": 993,
      "tok0979": 994,
      "tok0980": 995,
      "tok0981": 996,
      "tok0982": 997,
      "tok0983": 998,
      "tok0984": 999,
      "tok0985": 1000,
      "tok0986": 1001,
      "tok0987": 1002,
      "tok0988": 1003,
      "tok0989": 1004,
      "tok0990": 1005,
      "tok0991": 1006,
      "tok0992": 1007,
      "tok0993": 1008,
      "tok0994": 1009,
      "tok0995": 1010,
      "tok0996": 1011,
      "tok0997": 1012,
      "tok0998": 1013,
      "tok0999": 1014,
      "tok1000": 1015,
      "tok1001": 1016,
      "tok1002": 1017,
      "tok1003": 1018,
      "tok1004": 1019,
      "tok1005": 1020,
      "tok1006": 1021,
      "tok1007": 1022,
      "tok1008": 1023,
      "tok1009": 1024,
      "tok1010": 1025,
      "tok1011": 1026,
      "tok1012": 1027,
      "tok1013": 1028,
      "tok1014": 1029,
      "tok1015": 1030,
      "tok1016": 1031,
      "tok1017": 1032,
      "tok1018": 1033,
      "tok1019": 1034,
      "tok1020": 1035,
      "tok1021": 1036,
      "tok1022": 1037,
      "tok1023": 1038,
      "tok1024": 1039,
      "tok1025": 1040,
      "tok1026": 1041,
      "tok1027": 1042,
      "tok1028": 1043,
      "tok1029": 1044,
      "tok1030": 1045,
      "tok1031": 1046,
      "tok1032": 1047,
      "tok1033": 1048,
      "tok1034": 1049,
      "tok1035": 1050,
      "tok1036": 1051,
      "tok1037": 1052,
      "tok1038": 1053,
      "tok1039": 1054,
      "tok1040": 1055,
      "tok1041": 1056,
      "tok1042": 1057,
      "tok1043": 1058,
      "tok1044": 1059,
      "tok1045": 1060,
      "tok1046": 1061,
      "tok1047": 1062,
      "tok1048": 1063,
      "tok1049": 1064,
      "tok1050": 1065,
      "tok1051": 1066,
      "tok1052": 1067,
      "tok1053": 1068,
      "tok1054": 1069,
      "tok1055": 1070,
      "tok1056": 1071,
      "tok1057": 1072,
      "tok1058": 1073,
      "tok1059": 1074,
      "tok1060": 1075,
      "tok1061": 1076,
      "tok1062": 1077,
      "tok1063": 1078,
      "tok1064": 1079,
      "tok1065": 1080,
      "tok1066": 1081,
      "tok1067": 1082,
      "tok1068": 1083,
      "tok1069": 1084,
      "tok1070": 1085,
      "tok1071": 1086,
      "tok1072": 1087,
      "tok1073": 1088,
      "tok1074": 1089,
      "tok1075": 1090,
      "tok1076": 1091,
      "tok1077": 1092,
      "tok1078": 1093,
      "tok1079": 1094,
      "tok1080": 1095,
      "tok1081": 1096,
      "tok1082": 1097,
      "tok1083": 1098,
      "tok1084": 1099,
      "tok1085": 1100,
      "tok1086": 1101,
      "tok1087": 1102,
      "tok1088": 1103,
      "tok1089": 1104,
      "tok1090": 1105,
      "tok1091": 1106,
      "tok1092": 1107,
      "tok1093": 1108,
      "tok1094": 1109,
      "tok1095": 1110,
      "tok1096": 1111,
      "tok1097": 1112,
      "tok1098": 1113,
      "tok1099": 1114,
      "tok1100": 1115,
      "tok1101": 1116,
      "tok1102": 1117,
      "tok1103": 1118,
      "tok1104": 1119,
      "tok1105": 1120,
      "tok1106": 1121,
      "tok1107": 1122,
      "tok1108": 1123,
      "tok1109": 1124,
      "tok1110": 1125,
      "tok1111": 1126,
      "tok1112": 1127,
      "tok1113": 1128,
      "tok1114": 1129,
      "tok1115": 1130,
      "tok1116": 1131,
      "tok1117": 1132,
      "tok1118": 1133,
      "tok1119": 1134,
      "tok1120": 1135,
      "tok1121": 1136,
      "tok1122": 1137,
      "tok1123": 1138,
      "tok1124": 1139,
      "tok1125": 1140,
      "tok1126": 1141,
      "tok1127": 1142,
      "tok1128": 1143,
      "tok1129": 1144,
      "tok1130": 1145,
      "tok1131": 1146,
      "tok1132": 1147,
      "tok1133": 1148,
      "tok1134": 1149,
      "tok1135": 1150,
      "tok1136": 1151,
      "tok1137": 1152,
      "tok1138": 1153,
      "tok1139": 1154,
      "tok1140": 1155,
      "tok1141": 1156,
      "tok1142": 1157,
      "tok1143": 1158,
      "tok1144": 1159,
      "tok1145": 1160,
      "tok1146": 1161,
      "tok1147": 1162,
      "tok1148": 1163,
      "tok1149": 1164,
      "tok1150": 1165,
      "tok1151": 1166,
      "tok1152": 1167,
      "tok1153": 1168,
      "tok1154": 1169,
      "tok1155": 1170,
      "tok1156": 1171,
      "tok1157": 1172,
      "tok1158": 1173,
      "tok1159": 1174,
      "tok1160": 1175,
      "tok1161": 1176,
      "tok1162": 1177,
      "tok1163": 1178,
      "tok1164": 1179,
      "tok1165": 1180,
      "tok1166": 1181,
      "tok1167": 1182,
      "tok1168": 1183,
      "tok1169": 1184,
      "tok1170": 1185,
      "tok1171": 1186,
      "tok1172": 1187,
      "tok1173": 1188,
      "tok1174": 1189,
      "tok1175": 1190,
      "tok1176": 1191,
      "tok1177": 1192,
      "tok1178": 1193,
      "tok1179": 1194,
      "tok1180": 1195,
      "tok1181": 1196,
      "tok1182": 1197,
      "tok1183": 1198,
      "tok1184": 1199,
      "tok1185": 1200,
      "tok1186": 1201,
      "tok1187": 1202,
      "tok1188": 1203,
      "tok1189": 1204,
      "tok1190": 1205,
      "tok1191": 1206,
      "tok1192": 1207,
      "tok1193": 1208,
      "tok1194": 1209,
      "tok1195": 1210,
      "tok1196": 1211,
      "tok1197": 1212,
      "tok1198": 1213,
      "tok1199": 1214,
      "tok1200": 1215,
      "tok1201": 1216,
      "tok1202": 1217,
      "tok1203": 1218,
      "tok1204": 1219,
      "tok1205": 1220,
      "tok1206": 1221,
      "tok1207": 1222,
      "tok1208": 1223,
      "tok1209": 1224,
      "tok1210": 1225,
      "tok1211": 1226,
      "tok1212": 1227,
      "tok1213": 1228,
      "tok1214": 1229,
      "tok1215": 1230,
      "tok1216": 1231,
      "tok1217": 1232,
      "tok1218": 1233,
      "tok1219": 1234,
      "tok1220": 1235,
      "tok1221": 1236,
      "tok1222": 1237,
      "tok1223": 1238,
      "tok1224": 1239,
      "tok1225": 1240,
      "tok1226": 1241,
      "tok1227": 1242,
      "tok1228": 1243,
      "tok1229": 1244,
      "tok1230": 1245,
      "tok1231": 1246,
      "tok1232": 1247,
      "tok1233": 1248,
      "tok1234": 1249,
      "tok1235": 1250,
      "tok1236": 1251,
      "tok1237": 1252,
      "tok1238": 1253,
      "tok1239": 1254,
      "tok1240": 1255,
      "tok1241": 1256,
      "tok1242": 1257,
      "tok1243": 1258,
      "tok1244": 1259,
      "tok1245": 1260,
      "tok1246": 1261,
      "tok1247": 1262,
      "tok1248": 1263,
      "tok1249": 1264,
      "tok1250": 1265,
      "tok1251": 1266,
      "tok1252": 1267,
      "tok1253": 1268,
      "tok1254": 1269,
      "tok1255": 1270,
      "tok1256": 1271,
      "tok1257": 1272,
      "tok1258": 1273,
      "tok1259": 1274,
      "tok1260": 1275,
      "tok1261": 1276,
      "tok1262": 1277,
      "tok1263": 1278,
      "tok1264": 1279,
      "tok1265": 1280,
      "tok1266": 1281,
      "tok1267": 1282,
      "tok1268": 1283,
      "tok1269": 1284,
      "tok1270": 1285,
      "tok1271": 1286,
      "tok1272": 1287,
      "tok1273": 1288,
      "tok1274": 1289,
      "tok1275": 1290,
      "tok1276": 1291,
      "tok1277": 1292,
      "tok1278": 1293,
      "tok1279": 1294,
      "tok1280": 1295,
      "tok1281": 1296,
      "tok1282": 1297,
      "tok1283": 1298,
      "tok1284": 1299,
      "tok1285": 1300,
      "tok1286": 1301,
      "tok1287": 1302,
      "tok1288": 1303,
      "tok1289": 1304,
      "tok1290": 1305,
      "tok1291": 1306,
      "tok1292": 1307,
      "tok1293": 1308,
      "tok1294": 1309,
      "tok1295": 1310,
      "tok1296": 1311,
      "tok1297": 1312,
      "tok1298": 1313,
      "tok1299": 1314,
      "tok1300": 1315,
      "tok1301": 1316,
      "tok1302": 1317,
      "tok1303": 1318,
      "tok1304": 1319,
      "tok1305": 1320,
      "tok1306": 1321,
      "tok1307": 1322,
      "tok1308": 1323,
      "tok1309": 1324,
      "tok1310": 1325,
      "tok1311": 1326,
      "tok1312": 1327,
      "tok1313": 1328,
      "tok1314": 1329,
      "tok1315": 1330,
      "tok1316": 1331,
      "tok1317": 1332,
      "tok1318": 1333,
      "tok1319": 1334,
      "tok1320": 1335,
      "tok1321": 1336,
      "tok1322": 1337,
      "tok1323": 1338,
      "tok1324": 1339,
      "tok1325": 1340,
      "tok1326": 1341,
      "tok1327": 1342,
      "tok1328": 1343,
      "tok1329": 1344,
      "tok1330": 1345,
      "tok1331": 1346,
      "tok1332": 1347,
      "tok1333": 1348,
      "tok1334": 1349,
      "tok1335": 1350,
      "tok1336": 1351,
      "tok1337": 1352,
      "tok1338": 1353,
      "tok1339": 1354,
      "tok1340": 1355,
      "tok1341": 1356,
      "tok1342": 1357,
      "tok1343": 1358,
      "tok1344": 1359,
      "tok1345": 1360,
      "tok1346": 1361,
      "tok1347": 1362,
      "tok1348": 1363,
      "tok1349": 1364,
      "tok1350": 1365,
      "tok1351": 1366,
      "tok1352": 1367,
      "tok1353": 1368,
      "tok1354": 1369,
      "tok1355": 1370,
      "tok1356": 1371,
      "tok1357": 1372,
      "tok1358": 1373,
      "tok1359": 1374,
      "tok1360": 1375,
      "tok1361": 1376,
      "tok1362": 1377,
      "tok1363": 1378,
      "tok1364": 1379,
      "tok1365": 1380,
      "tok1366": 1381,
      "tok1367": 1382,
      "tok1368": 1383,
      "tok1369": 1384,
      "tok1370": 1385,
      "tok1371": 1386,
      "tok1372": 1387,
      "tok1373": 1388,
      "tok1374": 1389,
      "tok1375": 1390,
      "tok1376": 1391,
      "tok1377": 1392,
      "tok1378": 1393,
      "tok1379": 1394,
      "tok1380": 1395,
      "tok1381": 1396,
      "tok1382": 1397,
      "tok1383": 1398,
      "tok1384": 1399,
      "tok1385": 1400,
      "tok1386": 1401,
      "tok1387": 1402,
      "tok1388": 1403,
      "tok1389": 1404,
      "tok1390": 1405,
      "tok1391": 1406,
      "tok1392": 1407,
      "tok1393": 1408,
      "tok1394": 1409,
      "tok1395": 1410,
      "tok1396": 1411,
      "tok1397": 1412,
      "tok1398": 1413,
      "tok1399": 1414,
      "tok1400": 1415,
      "tok1401": 1416,
      "tok1402": 1417,
      "tok1403": 1418,
      "tok1404": 1419,
      "tok1405": 1420,
      "tok1406": 1421,
      "tok1407": 1422,
      "tok1408": 1423,
      "tok1409": 1424,
      "tok1410": 1425,
      "tok1411": 1426,
      "tok1412": 1427,
      "tok1413": 1428,
      "tok1414": 1429,
      "tok1415": 1430,
      "tok1416": 1431,
      "tok1417": 1432,
      "tok1418": 1433,
      "tok1419": 1434,
      "tok1420": 1435,
      "tok1421": 1436,
      "tok1422": 1437,
      "tok1423": 1438,
      "tok1424": 1439,
      "tok1425": 1440,
      "tok1426": 1441,
      "tok1427": 1442,
      "tok1428": 1443,
      "tok1429": 1444,
      "tok1430": 1445,
      "tok1431": 1446,
      "tok1432": 1447,
      "tok1433": 1448,
      "tok1434": 1449,
      "tok1435": 1450,
      "tok1436": 1451,
      "tok1437": 1452,
      "tok1438": 1453,
      "tok1439": 1454,
      "tok1440": 1455,
      "tok1441": 1456,
      "tok1442": 1457,
      "tok1443": 1458,
      "tok1444": 1459,
      "tok1445": 1460,
      "tok1446": 1461,
      "tok1447": 1462,
      "tok1448": 1463,
      "tok1449": 1464,
      "tok1450": 1465,
      "tok1451": 1466,
      "tok1452": 1467,
      "tok1453": 1468,
      "tok1454": 1469,
      "tok1455": 1470,
      "tok1456": 1471,
      "tok1457": 1472,
      "tok1458": 1473,
      "tok1459": 1474,
      "tok1460": 1475,
      "tok1461": 1476,
      "tok1462": 1477,
      "tok1463": 1478,
      "tok1464": 1479,
      "tok1465": 1480,
      "tok1466": 1481,
      "tok1467": 1482,
      "tok1468": 1483,
      "tok1469": 1484,
      "tok1470": 1485,
      "tok1471": 1486,
      "tok1472": 1487,
      "tok1473": 1488,
      "tok1474": 1489,
      "tok1475": 1490,
      "tok1476": 1491,
      "tok1477": 1492,
      "tok1478": 1493,
      "tok1479": 1494,
      "tok1480": 1495,
      "tok1481": 1496,
      "tok1482": 1497,
      "tok1483": 1498,
      "tok1484": 1499,
      "tok1485": 1500,
      "tok1486": 1501,
      "tok1487": 1502,
      "tok1488": 1503,
      "tok1489": 1504,
      "tok1490": 1505,
      "tok1491": 1506,
      "tok1492": 1507,
      "tok1493": 1508,
      "tok1494": 1509,
      "tok1495": 1510,
      "tok1496": 1511,
      "tok1497": 1512,
      "tok1498": 1513,
      "tok1499": 1514,
      "tok1500": 1515,
      "tok1501": 1516,
      "tok1502": 1517,
      "tok1503": 1518,
      "tok1504": 1519,
      "tok1505": 1520,
      "tok1506": 1521,
      "tok1507": 1522,
      "tok1508": 1523,
      "tok1509": 1524,
      "tok1510": 1525,
      "tok1511": 1526,
      "tok1512": 1527,
      "tok1513": 1528,
      "tok1514": 1529,
      "tok1515": 1530,
      "tok1516": 1531,
      "tok1517": 1532,
      "tok1518": 1533,
      "tok1519": 1534,
      "tok1520": 1535,
      "tok1521": 1536,
      "tok1522": 1537,
      "tok1523": 1538,
      "tok1524": 1539,
      "tok1525": 1540,
      "tok1526": 1541,
      "tok1527": 1542,
      "tok1528": 1543,
      "tok1529": 1544,
      "tok1530": 1545,
      "tok1531": 1546,
      "tok1532": 1547,
      "tok1533": 1548,
      "tok1534": 1549,
      "tok1535": 1550,
      "tok1536": 1551,
      "tok1537": 1552,
      "tok1538": 1553,
      "tok1539": 1554,
      "tok1540": 1555,
      "tok1541": 1556,
      "tok1542": 1557,
      "tok1543": 1558,
      "tok1544": 1559,
      "tok1545": 1560,
      "tok1546": 1561,
      "tok1547": 1562,
      "tok1548": 1563,
      "tok1549": 1564,
      "tok1550": 1565,
      "tok1551": 1566,
      "tok1552": 1567,
      "tok1553": 1568,
      "tok1554": 1569,
      "tok1555": 1570,
      "tok1556": 1571,
      "tok1557": 1572,
      "tok1558": 1573,
      "tok1559": 1574,
      "tok1560": 1575,
      "tok1561": 1576,
      "tok1562": 1577,
      "tok1563": 1578,
      "tok1564": 1579,
      "tok1565": 1580,
      "tok1566": 1581,
      "tok1567": 1582,
      "tok1568": 1583,
      "tok1569": 1584,
      "tok1570": 1585,
      "tok1571": 1586,
      "tok1572": 1587,
      "tok1573": 1588,
      "tok1574": 1589,
      "tok1575": 1590,
      "tok1576": 1591,
      "tok1577": 1592,
      "tok1578": 1593,
      "tok1579": 1594,
      "tok1580": 1595,
      "tok1581": 1596,
      "tok1582": 1597,
      "tok1583": 1598,
      "tok1584": 1599,
      "tok1585": 1600,
      "tok1586": 1601,
      "tok1587": 1602,
      "tok1588": 1603,
      "tok1589": 1604,
      "tok1590": 1605,
      "tok1591": 1606,
      "tok1592": 1607,
      "tok1593": 1608,
      "tok1594": 1609,
      "tok1595": 1610,
      "tok1596": 1611,
      "tok1597": 1612,
      "tok1598": 1613,
      "tok1599": 1614,
      "tok1600": 1615,
      "tok1601": 1616,
      "tok1602": 1617,
      "tok1603": 1618,
      "tok1604": 1619,
      "tok1605": 1620,
      "tok1606": 1621,
      "tok1607": 1622,
      "tok1608": 1623,
      "tok1609": 1624,
      "tok1610": 1625,
      "tok1611": 1626,
      "tok1612": 1627,
      "tok1613": 1628,
      "tok1614": 1629,
      "tok1615": 1630,
      "tok1616": 1631,
      "tok1617": 1632,
      "tok1618": 1633,
      "tok1619": 1634,
      "tok1620": 1635,
      "tok1621": 1636,
      "tok1622": 1637,
      "tok1623": 1638,
      "tok1624": 1639,
      "tok1625": 1640,
      "tok1626": 1641,
      "tok1627": 1642,
      "tok1628": 1643,
      "tok1629": 1644,
      "tok1630": 1645,
      "tok1631": 1646,
      "tok1632": 1647,
      "tok1633": 1648,
      "tok1634": 1649,
      "tok1635": 1650,
      "tok1636": 1651,
      "tok1637": 1652,
      "tok1638": 1653,
      "tok1639": 1654,
      "tok1640": 1655,
      "tok1641": 1656,
      "tok1642": 1657,
      "tok1643": 1658,
      "tok1644": 1659,
      "tok1645": 1660,
      "tok1646": 1661,
      "tok1647": 1662,
      "tok1648": 1663,
      "tok1649": 1664,
      "tok1650": 1665,
      "tok1651": 1666,
      "tok1652": 1667,
      "tok1653": 1668,
      "tok1654": 1669,
      "tok1655": 1670,
      "tok1656": 1671,
      "tok1657": 1672,
      "tok1658": 1673,
      "tok1659": 1674,
      "tok1660": 1675,
      "tok1661": 1676,
      "tok1662": 1677,
      "tok1663": 1678,
      "tok1664": 1679,
      "tok1665": 1680,
      "tok1666": 1681,
      "tok1667": 1682,
      "tok1668": 1683,
      "tok1669": 1684,
      "tok1670": 1685,
      "tok1671": 1686,
      "tok1672": 1687,
      "tok1673": 1688,
      "tok1674": 1689,
      "tok1675": 1690,
      "tok1676": 1691,
      "tok1677": 1692,
      "tok1678": 1693,
      "tok1679": 1694,
      "tok1680": 1695,
      "tok1681": 1696,
      "tok1682": 1697,
      "tok1683": 1698,
      "tok1684": 1699,
      "tok1685": 1700,
      "tok1686": 1701,
      "tok1687": 1702,
      "tok1688": 1703,
      "tok1689": 1704,
      "tok1690": 1705,
      "tok1691": 1706,
      "tok1692": 1707,
      "tok1693": 1708,
      "tok1694": 1709,
      "tok1695": 1710,
      "tok1696": 1711,
      "tok1697": 1712,
      "tok1698": 1713,
      "tok1699": 1714,
      "tok1700": 1715,
      "tok1701": 1716,
      "tok1702": 1717,
      "tok1703": 1718,
      "tok1704": 1719,
      "tok1705": 1720,
      "tok1706": 1721,
      "tok1707": 1722,
      "tok1708": 1723,
      "tok1709": 1724,
      "tok1710": 1725,
      "tok1711": 1726,
      "tok1712": 1727,
      "tok1713": 1728,
      "tok1714": 1729,
      "tok1715": 1730,
      "tok1716": 1731,
      "tok1717": 1732,
      "tok1718": 1733,
      "tok1719": 1734,
      "tok1720": 1735,
      "tok1721": 1736,
      "tok1722": 1737,
      "tok1723": 1738,
      "tok1724": 1739,
      "tok1725": 1740,
      "tok1726": 1741,
      "tok1727": 1742,
      "tok1728": 1743,
      "tok1729": 1744,
      "tok1730": 1745,
      "tok1731": 1746,
      "tok1732": 1747,
      "tok1733": 1748,
      "tok1734": 1749,
      "tok1735": 1750,
      "tok1736": 1751,
      "tok1737": 1752,
      "tok1738": 1753,
      "tok1739": 1754,
      "tok1740": 1755,
      "tok1741": 1756,
      "tok1742": 1757,
      "tok1743": 1758,
      "tok1744": 1759,
      "tok1745": 1760,
      "tok1746": 1761,
      "tok1747": 1762,
      "tok1748": 1763,
      "tok1749": 1764,
      "tok1750": 1765,
      "tok1751": 1766,
      "tok1752": 1767,
      "tok1753": 1768,
      "tok1754": 1769,
      "tok1755": 1770,
      "tok1756": 1771,
      "tok1757": 1772,
      "tok1758": 1773,
      "tok1759": 1774,
      "tok1760": 1775,
      "tok1761": 1776,
      "tok1762": 1777,
      "tok1763": 1778,
      "tok1764": 1779,
      "tok1765": 1780,
      "tok1766": 1781,
      "tok1767": 1782,
      "tok1768": 1783,
      "tok1769": 1784,
      "tok1770": 1785,
      "tok1771": 1786,
      "tok1772": 1787,
      "tok1773": 1788,
      "tok1774": 1789,
      "tok1775": 1790,
      "tok1776": 1791,
      "tok1777": 1792,
      "tok1778": 1793,
      "tok1779": 1794,
      "tok1780": 1795,
      "tok1781": 1796,
      "tok1782": 1797,
      "tok1783": 1798,
      "tok1784": 1799,
      "tok1785": 1800,
      "tok1786": 1801,
      "tok1787": 1802,
      "tok1788": 1803,
      "tok1789": 1804,
      "tok1790": 1805,
      "tok1791": 1806,
      "tok1792": 1807,
      "tok1793": 1808,
      "tok1794": 1809,
      "tok1795": 1810,
      "tok1796": 1811,
      "tok1797": 1812,
      "tok1798": 1813,
      "tok1799": 1814,
      "tok1800": 1815,
      "tok1801": 1816,
      "tok1802": 1817,
      "tok1803": 1818,
      "tok1804": 1819,
      "tok1805": 1820,
      "tok1806": 1821,
      "tok1807": 1822,
      "tok1808": 1823,
      "tok1809": 1824,
      "tok1810": 1825,
      "tok1811": 1826,
      "tok1812": 1827,
      "tok1813": 1828,
      "tok1814": 1829,
      "tok1815": 1830,
      "tok1816": 1831,
      "tok1817": 1832,
      "tok1818": 1833,
      "tok1819": 1834,
      "tok1820": 1835,
      "tok1821": 1836,
      "tok1822": 1837,
      "tok1823": 1838,
      "tok1824": 1839,
      "tok1825": 1840,
      "tok1826": 1841,
      "tok1827": 1842,
      "tok1828": 1843,
      "tok1829": 1844,
      "tok1830": 1845,
      "tok1831": 1846,
      "tok1832": 1847,
      "tok1833": 1848,
      "tok1834": 1849,
      "tok1835": 1850,
      "tok1836": 1851,
      "tok1837": 1852,
      "tok1838": 1853,
      "tok1839": 1854,
      "tok1840": 1855,
      "tok1841": 1856,
      "tok1842": 1857,
      "tok1843": 1858,
      "tok1844": 1859,
      "tok1845": 1860,
      "tok1846": 1861,
      "tok1847": 1862,
      "tok1848": 1863,
      "tok1849": 1864,
      "tok1850": 1865,
      "tok1851": 1866,
      "tok1852": 1867,
      "tok1853": 1868,
      "tok1854": 1869,
      "tok1855": 1870,
      "tok1856": 1871,
      "tok1857": 1872,
      "tok1858": 1873,
      "tok1859": 1874,
      "tok1860": 1875,
      "tok1861": 1876,
      "tok1862": 1877,
      "tok1863": 1878,
      "tok1864": 1879,
      "tok1865": 1880,
      "tok1866": 1881,
      "tok1867": 1882,
      "tok1868": 1883,
      "tok1869": 1884,
      "tok1870": 1885,
      "tok1871": 1886,
      "tok1872": 1887,
      "tok1873": 1888,
      "tok1874": 1889,
      "tok1875": 1890,
      "tok1876": 1891,
      "tok1877": 1892,
      "tok1878": 1893,
      "tok1879": 1894,
      "tok1880": 1895,
      "tok1881": 1896,
      "tok1882": 1897,
      "tok1883": 1898,
      "tok1884": 1899,
      "tok1885": 1900,
      "tok1886": 1901,
      "tok1887": 1902,
      "tok1888": 1903,
      "tok1889": 1904,
      "tok1890": 1905,
      "tok1891": 1906,
      "tok1892": 1907,
      "tok1893": 1908,
      "tok1894": 1909,
      "tok1895": 1910,
      "tok1896": 1911,
      "tok1897": 1912,
      "tok1898": 1913,
      "tok1899": 1914,
      "tok1900": 1915,
      "tok1901": 1916,
      "tok1902": 1917,
      "tok1903": 1918,
      "tok1904": 1919,
      "tok1905": 1920,
      "tok1906": 1921,
      "tok1907": 1922,
      "tok1908": 1923,
      "tok1909": 1924,
      "tok1910": 1925,
      "tok1911": 1926,
      "tok1912": 1927,
      "tok1913": 1928,
      "tok1914": 1929,
      "tok1915": 1930,
      "tok1916": 1931,
      "tok1917": 1932,
      "tok1918": 1933,
      "tok1919": 1934,
      "tok1920": 1935,
      "tok1921": 1936,
      "tok1922": 1937,
      "tok1923": 1938,
      "tok1924": 1939,
      "tok1925": 1940,
      "tok1926": 1941,
      "tok1927": 1942,
      "tok1928": 1943,
      "tok1929": 1944,
      "tok1930": 1945,
      "tok1931": 1946,
      "tok1932": 1947,
      "tok1933": 1948,
      "tok1934": 1949,
      "tok1935": 1950,
      "tok1936": 1951,
      "tok1937": 1952,
      "tok1938": 1953,
      "tok1939": 1954,
      "tok1940": 1955,
      "tok1941": 1956,
      "tok1942": 1957,
      "tok1943": 1958,
      "tok1944": 1959,
      "tok1945": 1960,
      "tok1946": 1961,
      "tok1947": 1962,
      "tok1948": 1963,
      "tok1949": 1964,
      "tok1950": 1965,
      "tok1951": 1966,
      "tok1952": 1967,
      "tok1953": 1968,
      "tok1954": 1969,
      "tok1955": 1970,
      "tok1956": 1971,
      "tok1957": 1972,
      "tok1958": 1973,
      "tok1959": 1974,
      "tok1960": 1975,
      "tok1961": 1976,
      "tok1962": 1977,
      "tok1963": 1978,
      "tok1964": 1979,
      "tok1965": 1980,
      "tok1966": 1981,
      "tok1967": 1982,
      "tok1968": 1983,
      "tok1969": 1984,
      "tok1970": 1985,
      "tok1971": 1986,
      "tok1972": 1987,
      "tok1973": 1988,
      "tok1974": 1989,
      "tok1975": 1990,
      "tok1976": 1991,
      "tok1977": 1992,
      "tok1978": 1993,
      "tok1979": 1994,
      "tok1980": 1995,
      "tok1981": 1996,
      "tok1982": 1997,
      "tok1983": 1998,
      "tok1984": 1999,
      "tok1985": 2000,
      "tok1986": 2001,
      "tok1987": 2002,
      "tok1988": 2003,
      "tok1989": 2004,
      "tok1990": 2005,
      "tok1991": 2006,
      "tok1992": 2007,
      "tok1993": 2008,
      "tok1994": 2009,
      "tok1995": 2010,
      "tok1996": 2011,
      "tok1997": 2012,
      "tok1998": 2013,
      "tok1999": 2014,
      "tok2000": 2015,
      "tok2001": 2016,
      "tok2002": 2017,
      "tok2003": 2018,
      "tok2004": 2019,
      "tok2005": 2020,
      "tok2006": 2021,
      "tok2007": 2022,
      "tok2008": 2023,
      "tok2009": 2024,
      "tok2010": 2025,
      "tok2011": 2026,
      "tok2012": 2027,
      "tok2013": 2028,
      "tok2014": 2029,
      "tok2015": 2030,
      "tok2016": 2031,
      "tok2017": 2032,
      "tok2018": 2033,
      "tok2019": 2034,
      "tok2020": 2035,
      "tok2021": 2036,
      "tok2022": 2037,
      "tok2023": 2038,
      "tok2024": 2039,
      "tok2025": 2040,
      "tok2026": 2041,
      "tok2027": 2042,
      "tok2028": 2043,
      "tok2029": 2044,
      "tok2030": 2045,
      "tok2031": 2046,
      "tok2032": 2047,
      "tok2033": 2048,
      "tok2034": 2049,
      "tok2035": 2050,
      "tok2036": 2051,
      "tok2037": 2052,
      "tok2038": 2053,
      "tok2039": 2054,
      "tok2040": 2055,
      "tok2041": 2056,
      "tok2042": 2057,
      "tok2043": 2058,
      "tok2044": 2059,
      "tok2045": 2060,
      "tok2046": 2061,
      "tok2047": 2062,
      "tok2048": 2063,
      "tok2049": 2064,
      "tok2050": 2065,
      "tok2051": 2066,
      "tok2052": 2067,
      "tok2053": 2068,
      "tok2054": 2069,
      "tok2055": 2070,
      "tok2056": 2071,
      "tok2057": 2072,
      "tok2058": 2073,
      "tok2059": 2074,
      "tok2060": 2075,
      "tok2061": 2076,
      "tok2062": 2077,
      "tok2063": 2078,
      "tok2064": 2079,
      "tok2065": 2080,
      "tok2066": 2081,
      "tok2067": 2082,
      "tok2068": 2083,
      "tok2069": 2084,
      "tok2070": 2085,
      "tok2071": 2086,
      "tok2072": 2087,
      "tok2073": 2088,
      "tok2074": 2089,
      "tok2075": 2090,
      "tok2076": 2091,
      "tok2077": 2092,
      "tok2078": 2093,
      "tok2079": 2094,
      "tok2080": 2095,
      "tok2081": 2096,
      "tok2082": 2097,
      "tok2083": 2098,
      "tok2084": 2099,
      "tok2085": 2100,
      "tok2086": 2101,
      "tok2087": 2102,
      "tok2088": 2103,
      "tok2089": 2104,
      "tok2090": 2105,
      "tok2091": 2106,
      "tok2092": 2107,
      "tok2093": 2108,
      "tok2094": 2109,
      "tok2095": 2110,
      "tok2096": 2111,
      "tok2097": 2112,
      "tok2098": 2113,
      "tok2099": 2114,
      "tok2100": 2115,
      "tok2101": 2116,
      "tok2102": 2117,
      "tok2103": 2118,
      "tok2104": 2119,
      "tok2105": 2120,
      "tok2106": 2121,
      "tok2107": 2122,
      "tok2108": 2123,
      "tok2109": 2124,
      "tok2110": 2125,
      "tok2111": 2126,
      "tok2112": 2127,
      "tok2113": 2128,
      "tok2114": 2129,
      "tok2115": 2130,
      "tok2116": 2131,
      "tok2117": 2132,
      "tok2118": 2133,
      "tok2119": 2134,
      "tok2120": 2135,
      "tok2121": 2136,
      "tok2122": 2137,
      "tok2123": 2138,
      "tok2124": 2139,
      "tok2125": 2140,
      "tok2126": 2141,
      "tok2127": 2142,
      "tok2128": 2143,
      "tok2129": 2144,
      "tok2130": 2145,
      "tok2131": 2146,
      "tok2132": 2147,
      "tok2133": 2148,
      "tok2134": 2149,
      "tok2135": 2150,
      "tok2136": 2151,
      "tok2137": 2152,
      "tok2138": 2153,
      "tok2139": 2154,
      "tok2140": 2155,
      "tok2141": 2156,
      "tok2142": 2157,
      "tok2143": 2158,
      "tok2144": 2159,
      "tok2145": 2160,
      "tok2146": 2161,
      "tok2147": 2162,
      "tok2148": 2163,
      "tok2149": 2164,
      "tok2150": 2165,
      "tok2151": 2166,
      "tok2152": 2167,
      "tok2153": 2168,
      "tok2154": 2169,
      "tok2155": 2170,
      "tok2156": 2171,
      "tok2157": 2172,
      "tok2158": 2173,
      "tok2159": 2174,
      "tok2160": 2175,
      "tok2161": 2176,
      "tok2162": 2177,
      "tok2163": 2178,
      "tok2164": 2179,
      "tok2165": 2180,
      "tok2166": 2181,
      "tok2167": 2182,
      "tok2168": 2183,
      "tok2169": 2184,
      "tok2170": 2185,
      "tok2171": 2186,
      "tok2172": 2187,
      "tok2173": 2188,
      "tok2174": 2189,
      "tok2175": 2190,
      "tok2176": 2191,
      "tok2177": 2192,
      "tok2178": 2193,
      "tok2179": 2194,
      "tok2180": 2195,
      "tok2181": 2196,
      "tok2182": 2197,
      "tok2183": 2198,
      "tok2184": 2199,
      "tok2185": 2200,
      "tok2186": 2201,
      "tok2187": 2202,
      "tok2188": 2203,
      "tok2189": 2204,
      "tok2190": 2205,
      "tok2191": 2206,
      "tok2192": 2207,
      "tok2193": 2208,
      "tok2194": 2209,
      "tok2195": 2210,
      "tok2196": 2211,
      "tok2197": 2212,
      "tok2198": 2213,
      "tok2199": 2214,
      "tok2200": 2215,
      "tok2201": 2216,
      "tok2202": 2217,
      "tok2203": 2218,
      "tok2204": 2219,
      "tok2205": 2220,
      "tok2206": 2221,
      "tok2207": 2222,
      "tok2208": 2223,
      "tok2209": 2224,
      "tok2210": 2225,
      "tok2211": 2226,
      "tok2212": 2227,
      "tok2213": 2228,
      "tok2214": 2229,
      "tok2215": 2230,
      "tok2216": 2231,
      "tok2217": 2232,
      "tok2218": 2233,
      "tok2219": 2234,
      "tok2220": 2235,
      "tok2221": 2236,
      "tok2222": 2237,
      "tok2223": 2238,
      "tok2224": 2239,
      "tok2225": 2240,
      "tok2226": 2241,
      "tok2227": 2242,
      "tok2228": 2243,
      "tok2229": 2244,
      "tok2230": 2245,
      "tok2231": 2246,
      "tok2232": 2247,
      "tok2233": 2248,
      "tok2234": 2249,
      "tok2235": 2250,
      "tok2236": 2251,
      "tok2237": 2252,
      "tok2238": 2253,
      "tok2239": 2254,
      "tok2240": 2255,
      "tok2241": 2256,
      "tok2242": 2257,
      "tok2243": 2258,
      "tok2244": 2259,
      "tok2245": 2260,
      "tok2246": 2261,
      "tok2247": 2262,
      "tok2248": 2263,
      "tok2249": 2264,
      "tok2250": 2265,
      "tok2251": 2266,
      "tok2252": 2267,
      "tok2253": 2268,
      "tok2254": 2269,
      "tok2255": 2270,
      "tok2256": 2271,
      "tok2257": 2272,
      "tok2258": 2273,
      "tok2259": 2274,
      "tok2260": 2275,
      "tok2261": 2276,
      "tok2262": 2277,
      "tok2263": 2278,
      "tok2264": 2279,
      "tok2265": 2280,
      "tok2266": 2281,
      "tok2267": 2282,
      "tok2268": 2283,
      "tok2269": 2284,
      "tok2270": 2285,
      "tok2271": 2286,
      "tok2272": 2287,
      "tok2273": 2288,
      "tok2274": 2289,
      "tok2275": 2290,
      "tok2276": 2291,
      "tok2277": 2292,
      "tok2278": 2293,
      "tok2279": 2294,
      "tok2280": 2295,
      "tok2281": 2296,
      "tok2282": 2297,
      "tok2283": 2298,
      "tok2284": 2299,
      "tok2285": 2300,
      "tok2286": 2301,
      "tok2287": 2302,
      "tok2288": 2303,
      "tok2289": 2304,
      "tok2290": 2305,
      "tok2291": 2306,
      "tok2292": 2307,
      "tok2293": 2308,
      "tok2294": 2309,
      "tok2295": 2310,
      "tok2296": 2311,
      "tok2297": 2312,
      "tok2298": 2313,
      "tok2299": 2314,
      "tok2300": 2315,
      "tok2301": 2316,
      "tok2302": 2317,
      "tok2303": 2318,
      "tok2304": 2319,
      "tok2305": 2320,
      "tok2306": 2321,
      "tok2307": 2322,
      "tok2308": 2323,
      "tok2309": 2324,
      "tok2310": 2325,
      "tok2311": 2326,
      "tok2312": 2327,
      "tok2313": 2328,
      "tok2314": 2329,
      "tok2315": 2330,
      "tok2316": 2331,
      "tok2317": 2332,
      "tok2318": 2333,
      "tok2319": 2334,
      "tok2320": 2335,
      "tok2321": 2336,
      "tok2322": 2337,
      "tok2323": 2338,
      "tok2324": 2339,
      "tok2325": 2340,
      "tok2326": 2341,
      "tok2327": 2342,
      "tok2328": 2343,
      "tok2329": 2344,
      "tok2330": 2345,
      "tok2331": 2346,
      "tok2332": 2347,
      "tok2333": 2348,
      "tok2334": 2349,
      "tok2335": 2350,
      "tok2336": 2351,
      "tok2337": 2352,
      "tok2338": 2353,
      "tok2339": 2354,
      "tok2340": 2355,
      "tok2341": 2356,
      "tok2342": 2357,
      "tok2343": 2358,
      "tok2344": 2359,
      "tok2345": 2360,
      "tok2346": 2361,
      "tok2347": 2362,
      "tok2348": 2363,
      "tok2349": 2364,
      "tok2350": 2365,
      "tok2351": 2366,
      "tok2352": 2367,
      "tok2353": 2368,
      "tok2354": 2369,
      "tok2355": 2370,
      "tok2356": 2371,
      "tok2357": 2372,
      "tok2358": 2373,
      "tok2359": 2374,
      "tok2360": 2375,
      "tok2361": 2376,
      "tok2362": 2377,
      "tok2363": 2378,
      "tok2364": 2379,
      "tok2365": 2380,
      "tok2366": 2381,
      "tok2367": 2382,
      "tok2368": 2383,
      "tok2369": 2384,
      "tok2370": 2385,
      "tok2371": 2386,
      "tok2372": 2387,
      "tok2373": 2388,
      "tok2374": 2389,
      "tok2375": 2390,
      "tok2376": 2391,
      "tok2377": 2392,
      "tok2378": 2393,
      "tok2379": 2394,
      "tok2380": 2395,
      "tok2381": 2396,
      "tok2382": 2397,
      "tok2383": 2398,
      "tok2384": 2399,
      "tok2385": 2400,
      "tok2386": 2401,
      "tok2387": 2402,
      "tok2388": 2403,
      "tok2389": 2404,
      "tok2390": 2405,
      "tok2391": 2406,
      "tok2392": 2407,
      "tok2393": 2408,
      "tok2394": 2409,
      "tok2395": 2410,
      "tok2396": 2411,
      "tok2397": 2412,
      "tok2398": 2413,
      "tok2399": 2414,
      "tok2400": 2415,
      "tok2401": 2416,
      "tok2402": 2417,
      "tok2403": 2418,
      "tok2404": 2419,
      "tok2405": 2420,
      "tok2406": 2421,
      "tok2407": 2422,
      "tok2408": 2423,
      "tok2409": 2424,
      "tok2410": 2425,
      "tok2411": 2426,
      "tok2412": 2427,
      "tok2413": 2428,
      "tok2414": 2429,
      "tok2415": 2430,
      "tok2416": 2431,
      "tok2417": 2432,
      "tok2418": 2433,
      "tok2419": 2434,
      "tok2420": 2435,
      "tok2421": 2436,
      "tok2422": 2437,
      "tok2423": 2438,
      "tok2424": 2439,
      "tok2425": 2440,
      "tok2426": 2441,
      "tok2427": 2442,
      "tok2428": 2443,
      "tok2429": 2444,
      "tok2430": 2445,
      "tok2431": 2446,
      "tok2432": 2447,
      "tok2433": 2448,
      "tok2434": 2449,
      "tok2435": 2450,
      "tok2436": 2451,
      "tok2437": 2452,
      "tok2438": 2453,
      "tok2439": 2454,
      "tok2440": 2455,
      "tok2441": 2456,
      "tok2442": 2457,
      "tok2443": 2458,
      "tok2444": 2459,
      "tok2445": 2460,
      "tok2446": 2461,
      "tok2447": 2462,
      "tok2448": 2463,
      "tok2449": 2464,
      "tok2450": 2465,
      "tok2451": 2466,
      "tok2452": 2467,
      "tok2453": 2468,
      "tok2454": 2469,
      "tok2455": 2470,
      "tok2456": 2471,
      "tok2457": 2472,
      "tok2458": 2473,
      "tok2459": 2474,
      "tok2460": 2475,
      "tok2461": 2476,
      "tok2462": 2477,
      "tok2463": 2478,
      "tok2464": 2479,
      "tok2465": 2480,
      "tok2466": 2481,
      "tok2467": 2482,
      "tok2468": 2483,
      "tok2469": 2484,
      "tok2470": 2485,
      "tok2471": 2486,
      "tok2472": 2487,
      "tok2473": 2488,
      "tok2474": 2489,
      "tok2475": 2490,
      "tok2476": 2491,
      "tok2477": 2492,
      "tok2478": 2493,
      "tok2479": 2494,
      "tok2480": 2495,
      "tok2481": 2496,
      "tok2482": 2497,
      "tok2483": 2498,
      "tok2484": 2499,
      "tok2485": 2500,
      "tok2486": 2501,
      "tok2487": 2502,
      "tok2488": 2503,
      "tok2489": 2504,
      "tok2490": 2505,
      "tok2491": 2506,
      "tok2492": 2507,
      "tok2493": 2508,
      "tok2494": 2509,
      "tok2495": 2510,
      "tok2496": 2511,
      "tok2497": 2512,
      "tok2498": 2513,
      "tok2499": 2514,
      "tok2500": 2515,
      "tok2501": 2516,
      "tok2502": 2517,
      "tok2503": 2518,
      "tok2504": 2519,
      "tok2505": 2520,
      "tok2506": 2521,
      "tok2507": 2522,
      "tok2508": 2523,
      "tok2509": 2524,
      "tok2510": 2525,
      "tok2511": 2526,
      "tok2512": 2527,
      "tok2513": 2528,
      "tok2514": 2529,
      "tok2515": 2530,
      "tok2516": 2531,
      "tok2517": 2532,
      "tok2518": 2533,
      "tok2519": 2534,
      "tok2520": 2535,
      "tok2521": 2536,
      "tok2522": 2537,
      "tok2523": 2538,
      "tok2524": 2539,
      "tok2525": 2540,
      "tok2526": 2541,
      "tok2527": 2542,
      "tok2528": 2543,
      "tok2529": 2544,
      "tok2530": 2545,
      "tok2531": 2546,
      "tok2532": 2547,
      "tok2533": 2548,
      "tok2534": 2549,
      "tok2535": 2550,
      "tok2536": 2551,
      "tok2537": 2552,
      "tok2538": 2553,
      "tok2539": 2554,
      "tok2540": 2555,
      "tok2541": 2556,
      "tok2542": 2557,
      "tok2543": 2558,
      "tok2544": 2559,
      "tok2545": 2560,
      "tok2546": 2561,
      "tok2547": 2562,
      "tok2548": 2563,
      "tok2549": 2564,
      "tok2550": 2565,
      "tok2551": 2566,
      "tok2552": 2567,
      "tok2553": 2568,
      "tok2554": 2569,
      "tok2555": 2570,
      "tok2556": 2571,
      "tok2557": 2572,
      "tok2558": 2573,
      "tok2559": 2574,
      "tok2560": 2575,
      "tok2561": 2576,
      "tok2562": 2577,
      "tok2563": 2578,
      "tok2564": 2579,
      "tok2565": 2580,
      "tok2566": 2581,
      "tok2567": 2582,
      "tok2568": 2583,
      "tok2569": 2584,
      "tok2570": 2585,
      "tok2571": 2586,
      "tok2572": 2587,
      "tok2573": 2588,
      "tok2574": 2589,
      "tok2575": 2590,
      "tok2576": 2591,
      "tok2577": 2592,
      "tok2578": 2593,
      "tok2579": 2594,
      "tok2580": 2595,
      "tok2581": 2596,
      "tok2582": 2597,
      "tok2583": 2598,
      "tok2584": 2599,
      "tok2585": 2600,
      "tok2586": 2601,
      "tok2587": 2602,
      "tok2588": 2603,
      "tok2589": 2604,
      "tok2590": 2605,
      "tok2591": 2606,
      "tok2592": 2607,
      "tok2593": 2608,
      "tok2594": 2609,
      "tok2595": 2610,
      "tok2596": 2611,
      "tok2597": 2612,
      "tok2598": 2613,
      "tok2599": 2614,
      "tok2600": 2615,
      "tok2601": 2616,
      "tok2602": 2617,
      "tok2603": 2618,
      "tok2604": 2619,
      "tok2605": 2620,
      "tok2606": 2621,
      "tok2607": 2622,
      "tok2608": 2623,
      "tok2609": 2624,
      "tok2610": 2625,
      "tok2611": 2626,
      "tok2612": 2627,
      "tok2613": 2628,
      "tok2614": 2629,
      "tok2615": 2630,
      "tok2616": 2631,
      "tok2617": 2632,
      "tok2618": 2633,
      "tok2619": 2634,
      "tok2620": 2635,
      "tok2621": 2636,
      "tok2622": 2637,
      "tok2623": 2638,
      "tok2624": 2639,
      "tok2625": 2640,
      "tok2626": 2641,
      "tok2627": 2642,
      "tok2628": 2643,
      "tok2629": 2644,
      "tok2630": 2645,
      "tok2631": 2646,
      "tok2632": 2647,
      "tok2633": 2648,
      "tok2634": 2649,
      "tok2635": 2650,
      "tok2636": 2651,
      "tok2637": 2652,
      "tok2638": 2653,
      "tok2639": 2654,
      "tok2640": 2655,
      "tok2641": 2656,
      "tok2642": 2657,
      "tok2643": 2658,
      "tok2644": 2659,
      "tok2645": 2660,
      "tok2646": 2661,
      "tok2647": 2662,
      "tok2648": 2663,
      "tok2649": 2664,
      "tok2650": 2665,
      "tok2651": 2666,
      "tok2652": 2667,
      "tok2653": 2668,
      "tok2654": 2669,
      "tok2655": 2670,
      "tok2656": 2671,
      "tok2657": 2672,
      "tok2658": 2673,
      "tok2659": 2674,
      "tok2660": 2675,
      "tok2661": 2676,
      "tok2662": 2677,
      "tok2663": 2678,
      "tok2664": 2679,
      "tok2665": 2680,
      "tok2666": 2681,
      "tok2667": 2682,
      "tok2668": 2683,
      "tok2669": 2684,
      "tok2670": 2685,
      "tok2671": 2686,
      "tok2672": 2687,
      "tok2673": 2688,
      "tok2674": 2689,
      "tok2675": 2690,
      "tok2676": 2691,
      "tok2677": 2692,
      "tok2678": 2693,
      "tok2679": 2694,
      "tok2680": 2695,
      "tok2681": 2696,
      "tok2682": 2697,
      "tok2683": 2698,
      "tok2684": 2699,
      "tok2685": 2700,
      "tok2686": 2701,
      "tok2687": 2702,
      "tok2688": 2703,
      "tok2689": 2704,
      "tok2690": 2705,
      "tok2691": 2706,
      "tok2692": 2707,
      "tok2693": 2708,
      "tok2694": 2709,
      "tok2695": 2710,
      "tok2696": 2711,
      "tok2697": 2712,
      "tok2698": 2713,
      "tok2699": 2714,
      "tok2700": 2715,
      "tok2701": 2716,
      "tok2702": 2717,
      "tok2703": 2718,
      "tok2704": 2719,
      "tok2705": 2720,
      "tok2706": 2721,
      "tok2707": 2722,
      "tok2708": 2723,
      "tok2709": 2724,
      "tok2710": 2725,
      "tok2711": 2726,
      "tok2712": 2727,
      "tok2713": 2728,
      "tok2714": 2729,
      "tok2715": 2730,
      "tok2716": 2731,
      "tok2717": 2732,
      "tok2718": 2733,
      "tok2719": 2734,
      "tok2720": 2735,
      "tok2721": 2736,
      "tok2722": 2737,
      "tok2723": 2738,
      "tok2724": 2739,
      "tok2725": 2740,
      "tok2726": 2741,
      "tok2727": 2742,
      "tok2728": 2743,
      "tok2729": 2744,
      "tok2730": 2745,
      "tok2731": 2746,
      "tok2732": 2747,
      "tok2733": 2748,
      "tok2734": 2749,
      "tok2735": 2750,
      "tok2736": 2751,
      "tok2737": 2752,
      "tok2738": 2753,
      "tok2739": 2754,
      "tok2740": 2755,
      "tok2741": 2756,
      "tok2742": 2757,
      "tok2743": 2758,
      "tok2744": 2759,
      "tok2745": 2760,
      "tok2746": 2761,
      "tok2747": 2762,
      "tok2748": 2763,
      "tok2749": 2764,
      "tok2750": 2765,
      "tok2751": 2766,
      "tok2752": 2767,
      "tok2753": 2768,
      "tok2754": 2769,
      "tok2755": 2770,
      "tok2756": 2771,
      "tok2757": 2772,
      "tok2758": 2773,
      "tok2759": 2774,
      "tok2760": 2775,
      "tok2761": 2776,
      "tok2762": 2777,
      "tok2763": 2778,
      "tok2764": 2779,
      "tok2765": 2780,
      "tok2766": 2781,
      "tok2767": 2782,
      "tok2768": 2783,
      "tok2769": 2784,
      "tok2770": 2785,
      "tok2771": 2786,
      "tok2772": 2787,
      "tok2773": 2788,
      "tok2774": 2789,
      "tok2775": 2790,
      "tok2776": 2791,
      "tok2777": 2792,
      "tok2778": 2793,
      "tok2779": 2794,
      "tok2780": 2795,
      "tok2781": 2796,
      "tok2782": 2797,
      "tok2783": 2798,
      "tok2784": 2799,
      "tok2785": 2800,
      "tok2786": 2801,
      "tok2787": 2802,
      "tok2788": 2803,
      "tok2789": 2804,
      "tok2790": 2805,
      "tok2791": 2806,
      "tok2792": 2807,
      "tok2793": 2808,
      "tok2794": 2809,
      "tok2795": 2810,
      "tok2796": 2811,
      "tok2797": 2812,
      "tok2798": 2813,
      "tok2799": 2814,
      "tok2800": 2815,
      "tok2801": 2816,
      "tok2802": 2817,
      "tok2803": 2818,
      "tok2804": 2819,
      "tok2805": 2820,
      "tok2806": 2821,
      "tok2807": 2822,
      "tok2808": 2823,
      "tok2809": 2824,
      "tok2810": 2825,
      "tok2811": 2826,
      "tok2812": 2827,
      "tok2813": 2828,
      "tok2814": 2829,
      "tok2815": 2830,
      "tok2816": 2831,
      "tok2817": 2832,
      "tok2818": 2833,
      "tok2819": 2834,
      "tok2820": 2835,
      "tok2821": 2836,
      "tok2822": 2837,
      "tok2823": 2838,
      "tok2824": 2839,
      "tok2825": 2840,
      "tok2826": 2841,
      "tok2827": 2842,
      "tok2828": 2843,
      "tok2829": 2844,
      "tok2830": 2845,
      "tok2831": 2846,
      "tok2832": 2847,
      "tok2833": 2848,
      "tok2834": 2849,
      "tok2835": 2850,
      "tok2836": 2851,
      "tok2837": 2852,
      "tok2838": 2853,
      "tok2839": 2854,
      "tok2840": 2855,
      "tok2841": 2856,
      "tok2842": 2857,
      "tok2843": 2858,
      "tok2844": 2859,
      "tok2845": 2860,
      "tok2846": 2861,
      "tok2847": 2862,
      "tok2848": 2863,
      "tok2849": 2864,
      "tok2850": 2865,
      "tok2851": 2866,
      "tok2852": 2867,
      "tok2853": 2868,
      "tok2854": 2869,
      "tok2855": 2870,
      "tok2856": 2871,
      "tok2857": 2872,
      "tok2858": 2873,
      "tok2859": 2874,
      "tok2860": 2875,
      "tok2861": 2876,
      "tok2862": 2877,
      "tok2863": 2878,
      "tok2864": 2879,
      "tok2865": 2880,
      "tok2866": 2881,
      "tok2867": 2882,
      "tok2868": 2883,
      "tok2869": 2884,
      "tok2870": 2885,
      "tok2871": 2886,
      "tok2872": 2887,
      "tok2873": 2888,
      "tok2874": 2889,
      "tok2875": 2890,
      "tok2876": 2891,
      "tok2877": 2892,
      "tok2878": 2893,
      "tok2879": 2894,
      "tok2880": 2895,
      "tok2881": 2896,
      "tok2882": 2897,
      "tok2883": 2898,
      "tok2884": 2899,
      "tok2885": 2900,
      "tok2886": 2901,
      "tok2887": 2902,
      "tok2888": 2903,
      "tok2889": 2904,
      "tok2890": 2905,
      "tok2891": 2906,
      "tok2892": 2907,
      "tok2893": 2908,
      "tok2894": 2909,
      "tok2895": 2910,
      "tok2896": 2911,
      "tok2897": 2912,
      "tok2898": 2913,
      "tok2899": 2914,
      "tok2900": 2915,
      "tok2901": 2916,
      "tok2902": 2917,
      "tok2903": 2918,
      "tok2904": 2919,
      "tok2905": 2920,
      "tok2906": 2921,
      "tok2907": 2922,
      "tok2908": 2923,
      "tok2909": 2924,
      "tok2910": 2925,
      "tok2911": 2926,
      "tok2912": 2927,
      "tok2913": 2928,
      "tok2914": 2929,
      "tok2915": 2930,
      "tok2916": 2931,
      "tok2917": 2932,
      "tok2918": 2933,
      "tok2919": 2934,
      "tok2920": 2935,
      "tok2921": 2936,
      "tok2922": 2937,
      "tok2923": 2938,
      "tok2924": 2939,
      "tok2925": 2940,
      "tok2926": 2941,
      "tok2927": 2942,
      "tok2928": 2943,
      "tok2929": 2944,
      "tok2930": 2945,
      "tok2931": 2946,
      "tok2932": 2947,
      "tok2933": 2948,
      "tok2934": 2949,
      "tok2935": 2950,
      "tok2936": 2951,
      "tok2937": 2952,
      "tok2938": 2953,
      "tok2939": 2954,
      "tok2940": 2955,
      "tok2941": 2956,
      "tok2942": 2957,
      "tok2943": 2958,
      "tok2944": 2959,
      "tok2945": 2960,
      "tok2946": 2961,
      "tok2947": 2962,
      "tok2948": 2963,
      "tok2949": 2964,
      "tok2950": 2965,
      "tok2951": 2966,
      "tok2952": 2967,
      "tok2953": 2968,
      "tok2954": 2969,
      "tok2955": 2970,
      "tok2956": 2971,
      "tok2957": 2972,
      "tok2958": 2973,
      "tok2959": 2974,
      "tok2960": 2975,
      "tok2961": 2976,
      "tok2962": 2977,
      "tok2963": 2978,
      "tok2964": 2979,
      "tok2965": 2980,
      "tok2966": 2981,
      "tok2967": 2982,
      "tok2968": 2983,
      "tok2969": 2984,
      "tok2970": 2985,
      "tok2971": 2986,
      "tok2972": 2987,
      "tok2973": 2988,
      "tok2974": 2989,
      "tok2975": 2990,
      "tok2976": 2991,
      "tok2977": 2992,
      "tok2978": 2993,
      "tok2979": 2994,
      "tok2980": 2995,
      "tok2981": 2996,
      "tok2982": 2997,
      "tok2983": 2998,
      "tok2984": 2999,
      "tok2985": 3000,
      "tok2986": 3001,
      "tok2987": 3002,
      "tok2988": 3003,
      "tok2989": 3004,
      "tok2990": 3005,
      "tok2991": 3006,
      "tok2992": 3007,
      "tok2993": 3008,
      "tok2994": 3009,
      "tok2995": 3010,
      "tok2996": 3011,
      "tok2997": 3012,
      "tok2998": 3013,
      "tok2999": 3014,
      "tok3000": 3015,
      "tok3001": 3016,
      "tok3002": 3017,
      "tok3003": 3018,
      "tok3004": 3019,
      "tok3005": 3020,
      "tok3006": 3021,
      "tok3007": 3022,
      "tok3008": 3023,
      "tok3009": 3024,
      "tok3010": 3025,
      "tok3011": 3026,
      "tok3012": 3027,
      "tok3013": 3028,
      "tok3014": 3029,
      "tok3015": 3030,
      "tok3016": 3031,
      "tok3017": 3032,
      "tok3018": 3033,
      "tok3019": 3034,
      "tok3020": 3035,
      "tok3021": 3036,
      "tok3022": 3037,
      "tok3023": 3038,
      "tok3024": 3039,
      "tok3025": 3040,
      "tok3026": 3041,
      "tok3027": 3042,
      "tok3028": 3043,
      "tok3029": 3044,
      "tok3030": 3045,
      "tok3031": 3046,
      "tok3032": 3047,
      "tok3033": 3048,
      "tok3034": 3049,
      "tok3035": 3050,
      "tok3036": 3051,
      "tok3037": 3052,
      "tok3038": 3053,
      "tok3039": 3054,
      "tok3040": 3055,
      "tok3041": 3056,
      "tok3042": 3057,
      "tok3043": 3058,
      "tok3044": 3059,
      "tok3045": 3060,
      "tok3046": 3061,
      "tok3047": 3062,
      "tok3048": 3063,
      "tok3049": 3064,
      "tok3050": 3065,
      "tok3051": 3066,
      "tok3052": 3067,
      "tok3053": 3068,
      "tok3054": 3069,
      "tok3055": 3070,
      "tok3056": 3071,
      "tok3057": 3072,
      "tok3058": 3073,
      "tok3059": 3074,
      "tok3060": 3075,
      "tok3061": 3076,
      "tok3062": 3077,
      "tok3063": 3078,
      "tok3064": 3079,
      "tok3065": 3080,
      "tok3066": 3081,
      "tok3067": 3082,
      "tok3068": 3083,
      "tok3069": 3084,
      "tok3070": 3085,
      "tok3071": 3086,
      "tok3072": 3087,
      "tok3073": 3088,
      "tok3074": 3089,
      "tok3075": 3090,
      "tok3076": 3091,
      "tok3077": 3092,
      "tok3078": 3093,
      "tok3079": 3094,
      "tok3080": 3095,
      "tok3081": 3096,
      "tok3082": 3097,
      "tok3083": 3098,
      "tok3084": 3099,
      "tok3085": 3100,
      "tok3086": 3101,
      "tok3087": 3102,
      "tok3088": 3103,
      "tok3089": 3104,
      "tok3090": 3105,
      "tok3091": 3106,
      "tok3092": 3107,
      "tok3093": 3108,
      "tok3094": 3109,
      "tok3095": 3110,
      "tok3096": 3111,
      "tok3097": 3112,
      "tok3098": 3113,
      "tok3099": 3114,
      "tok3100": 3115,
      "tok3101": 3116,
      "tok3102": 3117,
      "tok3103": 3118,
      "tok3104": 3119,
      "tok3105": 3120,
      "tok3106": 3121,
      "tok3107": 3122,
      "tok3108": 3123,
      "tok3109": 3124,
      "tok3110": 3125,
      "tok3111": 3126,
      "tok3112": 3127,
      "tok3113": 3128,
      "tok3114": 3129,
      "tok3115": 3130,
      "tok3116": 3131,
      "tok3117": 3132,
      "tok3118": 3133,
      "tok3119": 3134,
      "tok3120": 3135,
      "tok3121": 3136,
      "tok3122": 3137,
      "tok3123": 3138,
      "tok3124": 3139,
      "tok3125": 3140,
      "tok3126": 3141,
      "tok3127": 3142,
      "tok3128": 3143,
      "tok3129": 3144,
      "tok3130": 3145,
      "tok3131": 3146,
      "tok3132": 3147,
      "tok3133": 3148,
      "tok3134": 3149,
      "tok3135": 3150,
      "tok3136": 3151,
      "tok3137": 3152,
      "tok3138": 3153,
      "tok3139": 3154,
      "tok3140": 3155,
      "tok3141": 3156,
      "tok3142": 3157,
      "tok3143": 3158,
      "tok3144": 3159,
      "tok3145": 3160,
      "tok3146": 3161,
      "tok3147": 3162,
      "tok3148": 3163,
      "tok3149": 3164,
      "tok3150": 3165,
      "tok3151": 3166,
      "tok3152": 3167,
      "tok3153": 3168,
      "tok3154": 3169,
      "tok3155": 3170,
      "tok3156": 3171,
      "tok3157": 3172,
      "tok3158": 3173,
      "tok3159": 3174,
      "tok3160": 3175,
      "tok3161": 3176,
      "tok3162": 3177,
      "tok3163": 3178,
      "tok3164": 3179,
      "tok3165": 3180,
      "tok3166": 3181,
      "tok3167": 3182,
      "tok3168": 3183,
      "tok3169": 3184,
      "tok3170": 3185,
      "tok3171": 3186,
      "tok3172": 3187,
      "tok3173": 3188,
      "tok3174": 3189,
      "tok3175": 3190,
      "tok3176": 3191,
      "tok3177": 3192,
      "tok3178": 3193,
      "tok3179": 3194,
      "tok3180": 3195,
      "tok3181": 3196,
      "tok3182": 3197,
      "tok3183": 3198,
      "tok3184": 3199,
      "tok3185": 3200,
      "tok3186": 3201,
      "tok3187": 3202,
      "tok3188": 3203,
      "tok3189": 3204,
      "tok3190": 3205,
      "tok3191": 3206,
      "tok3192": 3207,
      "tok3193": 3208,
      "tok3194": 3209,
      "tok3195": 3210,
      "tok3196": 3211,
      "tok3197": 3212,
      "tok3198": 3213,
      "tok3199": 3214,
      "tok3200": 3215,
      "tok3201": 3216,
      "tok3202": 3217,
      "tok3203": 3218,
      "tok3204": 3219,
      "tok3205": 3220,
      "tok3206": 3221,
      "tok3207": 3222,
      "tok3208": 3223,
      "tok3209": 3224,
      "tok3210": 3225,
      "tok3211": 3226,
      "tok3212": 3227,
      "tok3213": 3228,
      "tok3214": 3229,
      "tok3215": 3230,
      "tok3216": 3231,
      "tok3217": 3232,
      "tok3218": 3233,
      "tok3219": 3234,
      "tok3220": 3235,
      "tok3221": 3236,
      "tok3222": 3237,
      "tok3223": 3238,
      "tok3224": 3239,
      "tok3225": 3240,
      "tok3226": 3241,
      "tok3227": 3242,
      "tok3228": 3243,
      "tok3229": 3244,
      "tok3230": 3245,
      "tok3231": 3246,
      "tok3232": 3247,
      "tok3233": 3248,
      "tok3234": 3249,
      "tok3235": 3250,
      "tok3236": 3251,
      "tok3237": 3252,
      "tok3238": 3253,
      "tok3239": 3254,
      "tok3240": 3255,
      "tok3241": 3256,
      "tok3242": 3257,
      "tok3243": 3258,
      "tok3244": 3259,
      "tok3245": 3260,
      "tok3246": 3261,
      "tok3247": 3262,
      "tok3248": 3263,
      "tok3249": 3264,
      "tok3250": 3265,
      "tok3251": 3266,
      "tok3252": 3267,
      "tok3253": 3268,
      "tok3254": 3269,
      "tok3255": 3270,
      "tok3256": 3271,
      "tok3257": 3272,
      "tok3258": 3273,
      "tok3259": 3274,
      "tok3260": 3275,
      "tok3261": 3276,
      "tok3262": 3277,
      "tok3263": 3278,
      "tok3264": 3279,
      "tok3265": 3280,
      "tok3266": 3281,
      "tok3267": 3282,
      "tok3268": 3283,
      "tok3269": 3284,
      "tok3270": 3285,
      "tok3271": 3286,
      "tok3272": 3287,
      "tok3273": 3288,
      "tok3274": 3289,
      "tok3275": 3290,
      "tok3276": 3291,
      "tok3277": 3292,
      "tok3278": 3293,
      "tok3279": 3294,
      "tok3280": 3295,
      "tok3281": 3296,
      "tok3282": 3297,
      "tok3283": 3298,
      "tok3284": 3299,
      "tok3285": 3300,
      "tok3286": 3301,
      "tok3287": 3302,
      "tok3288": 3303,
      "tok3289": 3304,
      "tok3290": 3305,
      "tok3291": 3306,
      "tok3292": 3307,
      "tok3293": 3308,
      "tok3294": 3309,
      "tok3295": 3310,
      "tok3296": 3311,
      "tok3297": 3312,
      "tok3298": 3313,
      "tok3299": 3314,
      "tok3300": 3315,
      "tok3301": 3316,
      "tok3302": 3317,
      "tok3303": 3318,
      "tok3304": 3319,
      "tok3305": 3320,
      "tok3306": 3321,
      "tok3307": 3322,
      "tok3308": 3323,
      "tok3309": 3324,
      "tok3310": 3325,
      "tok3311": 3326,
      "tok3312": 3327,
      "tok3313": 3328,
      "tok3314": 3329,
      "tok3315": 3330,
      "tok3316": 3331,
      "tok3317": 3332,
      "tok3318": 3333,
      "tok3319": 3334,
      "tok3320": 3335,
      "tok3321": 3336,
      "tok3322": 3337,
      "tok3323": 3338,
      "tok3324": 3339,
      "tok3325": 3340,
      "tok3326": 3341,
      "tok3327": 3342,
      "tok3328": 3343,
      "tok3329": 3344,
      "tok3330": 3345,
      "tok3331": 3346,
      "tok3332": 3347,
      "tok3333": 3348,
      "tok3334": 3349,
      "tok3335": 3350,
      "tok3336": 3351,
      "tok3337": 3352,
      "tok3338": 3353,
      "tok3339": 3354,
      "tok3340": 3355,
      "tok3341": 3356,
      "tok3342": 3357,
      "tok3343": 3358,
      "tok3344": 3359,
      "tok3345": 3360,
      "tok3346": 3361,
      "tok3347": 3362,
      "tok3348": 3363,
      "tok3349": 3364,
      "tok3350": 3365,
      "tok3351": 3366,
      "tok3352": 3367,
      "tok3353": 3368,
      "tok3354": 3369,
      "tok3355": 3370,
      "tok3356": 3371,
      "tok3357": 3372,
      "tok3358": 3373,
      "tok3359": 3374,
      "tok3360": 3375,
      "tok3361": 3376,
      "tok3362": 3377,
      "tok3363": 3378,
      "tok3364": 3379,
      "tok3365": 3380,
      "tok3366": 3381,
      "tok3367": 3382,
      "tok3368": 3383,
      "tok3369": 3384,
      "tok3370": 3385,
      "tok3371": 3386,
      "tok3372": 3387,
      "tok3373": 3388,
      "tok3374": 3389,
      "tok3375": 3390,
      "tok3376": 3391,
      "tok3377": 3392,
      "tok3378": 3393,
      "tok3379": 3394,
      "tok3380": 3395,
      "tok3381": 3396,
      "tok3382": 3397,
      "tok3383": 3398,
      "tok3384": 3399,
      "tok3385": 3400,
      "tok3386": 3401,
      "tok3387": 3402,
      "tok3388": 3403,
      "tok3389": 3404,
      "tok3390": 3405,
      "tok3391": 3406,
      "tok3392": 3407,
      "tok3393": 3408,
      "tok3394": 3409,
      "tok3395": 3410,
      "tok3396": 3411,
      "tok3397": 3412,
      "tok3398": 3413,
      "tok3399": 3414,
      "tok3400": 3415,
      "tok3401": 3416,
      "tok3402": 3417,
      "tok3403": 3418,
      "tok3404": 3419,
      "tok3405": 3420,
      "tok3406": 3421,
      "tok3407": 3422,
      "tok3408": 3423,
      "tok3409": 3424,
      "tok3410": 3425,
      "tok3411": 3426,
      "tok3412": 3427,
      "tok3413": 3428,
      "tok3414": 3429,
      "tok3415": 3430,
      "tok3416": 3431,
      "tok3417": 3432,
      "tok3418": 3433,
      "tok3419": 3434,
      "tok3420": 3435,
      "tok3421": 3436,
      "tok3422": 3437,
      "tok3423": 3438,
      "tok3424": 3439,
      "tok3425": 3440,
      "tok3426": 3441,
      "tok3427": 3442,
      "tok3428": 3443,
      "tok3429": 3444,
      "tok3430": 3445,
      "tok3431": 3446,
      "tok3432": 3447,
      "tok3433": 3448,
      "tok3434": 3449,
      "tok3435": 3450,
      "tok3436": 3451,
      "tok3437": 3452,
      "tok3438": 3453,
      "tok3439": 3454,
      "tok3440": 3455,
      "tok3441": 3456,
      "tok3442": 3457,
      "tok3443": 3458,
      "tok3444": 3459,
      "tok3445": 3460,
      "tok3446": 3461,
      "tok3447": 3462,
      "tok3448": 3463,
      "tok3449": 3464,
      "tok3450": 3465,
      "tok3451": 3466,
      "tok3452": 3467,
      "tok3453": 3468,
      "tok3454": 3469,
      "tok3455": 3470,
      "tok3456": 3471,
      "tok3457": 3472,
      "tok3458": 3473,
      "tok3459": 3474,
      "tok3460": 3475,
      "tok3461": 3476,
      "tok3462": 3477,
      "tok3463": 3478,
      "tok3464": 3479,
      "tok3465": 3480,
      "tok3466": 3481,
      "tok3467": 3482,
      "tok3468": 3483,
      "tok3469": 3484,
      "tok3470": 3485,
      "tok3471": 3486,
      "tok3472": 3487,
      "tok3473": 3488,
      "tok3474": 3489,
      "tok3475": 3490,
      "tok3476": 3491,
      "tok3477": 3492,
      "tok3478": 3493,
      "tok3479": 3494,
      "tok3480": 3495,
      "tok3481": 3496,
      "tok3482": 3497,
      "tok3483": 3498,
      "tok3484": 3499,
      "tok3485": 3500,
      "tok3486": 3501,
      "tok3487": 3502,
      "tok3488": 3503,
      "tok3489": 3504,
      "tok3490": 3505,
      "tok3491": 3506,
      "tok3492": 3507,
      "tok3493": 3508,
      "tok3494": 3509,
      "tok3495": 3510,
      "tok3496": 3511,
      "tok3497": 3512,
      "tok3498": 3513,
      "tok3499": 3514,
      "tok3500": 3515,
      "tok3501": 3516,
      "tok3502": 3517,
      "tok3503": 3518,
      "tok3504": 3519,
      "tok3505": 3520,
      "tok3506": 3521,
      "tok3507": 3522,
      "tok3508": 3523,
      "tok3509": 3524,
      "tok3510": 3525,
      "tok3511": 3526,
      "tok3512": 3527,
      "tok3513": 3528,
      "tok3514": 3529,
      "tok3515": 3530,
      "tok3516": 3531,
      "tok3517": 3532,
      "tok3518": 3533,
      "tok3519": 3534,
      "tok3520": 3535,
      "tok3521": 3536,
      "tok3522": 3537,
      "tok3523": 3538,
      "tok3524": 3539,
      "tok3525": 3540,
      "tok3526": 3541,
      "tok3527": 3542,
      "tok3528": 3543,
      "tok3529": 3544,
      "tok3530": 3545,
      "tok3531": 3546,
      "tok3532": 3547,
      "tok3533": 3548,
      "tok3534": 3549,
      "tok3535": 3550,
      "tok3536": 3551,
      "tok3537": 3552,
      "tok3538": 3553,
      "tok3539": 3554,
      "tok3540": 3555,
      "tok3541": 3556,
      "tok3542": 3557,
      "tok3543": 3558,
      "tok3544": 3559,
      "tok3545": 3560,
      "tok3546": 3561,
      "tok3547": 3562,
      "tok3548": 3563,
      "tok3549": 3564,
      "tok3550": 3565,
      "tok3551": 3566,
      "tok3552": 3567,
      "tok3553": 3568,
      "tok3554": 3569,
      "tok3555": 3570,
      "tok3556": 3571,
      "tok3557": 3572,
      "tok3558": 3573,
      "tok3559": 3574,
      "tok3560": 3575,
      "tok3561": 3576,
      "tok3562": 3577,
      "tok3563": 3578,
      "tok3564": 3579,
      "tok3565": 3580,
      "tok3566": 3581,
      "tok3567": 3582,
      "tok3568": 3583,
      "tok3569": 3584,
      "tok3570": 3585,
      "tok3571": 3586,
      "tok3572": 3587,
      "tok3573": 3588,
      "tok3574": 3589,
      "tok3575": 3590,
      "tok3576": 3591,
      "tok3577": 3592,
      "tok3578": 3593,
      "tok3579": 3594,
      "tok3580": 3595,
      "tok3581": 3596,
      "tok3582": 3597,
      "tok3583": 3598,
      "tok3584": 3599,
      "tok3585": 3600,
      "tok3586": 3601,
      "tok3587": 3602,
      "tok3588": 3603,
      "tok3589": 3604,
      "tok3590": 3605,
      "tok3591": 3606,
      "tok3592": 3607,
      "tok3593": 3608,
      "tok3594": 3609,
      "tok3595": 3610,
      "tok3596": 3611,
      "tok3597": 3612,
      "tok3598": 3613,
      "tok3599": 3614,
      "tok3600": 3615,
      "tok3601": 3616,
      "tok3602": 3617,
      "tok3603": 3618,
      "tok3604": 3619,
      "tok3605": 3620,
      "tok3606": 3621,
      "tok3607": 3622,
      "tok3608": 3623,
      "tok3609": 3624,
      "tok3610": 3625,
      "tok3611": 3626,
      "tok3612": 3627,
      "tok3613": 3628,
      "tok3614": 3629,
      "tok3615": 3630,
      "tok3616": 3631,
      "tok3617": 3632,
      "tok3618": 3633,
      "tok3619": 3634,
      "tok3620": 3635,
      "tok3621": 3636,
      "tok3622": 3637,
      "tok3623": 3638,
      "tok3624": 3639,
      "tok3625": 3640,
      "tok3626": 3641,
      "tok3627": 3642,
      "tok3628": 3643,
      "tok3629": 3644,
      "tok3630": 3645,
      "tok3631": 3646,
      "tok3632": 3647,
      "tok3633": 3648,
      "tok3634": 3649,
      "tok3635": 3650,
      "tok3636": 3651,
      "tok3637": 3652,
      "tok3638": 3653,
      "tok3639": 3654,
      "tok3640": 3655,
      "tok3641": 3656,
      "tok3642": 3657,
      "tok3643": 3658,
      "tok3644": 3659,
      "tok3645": 3660,
      "tok3646": 3661,
      "tok3647": 3662,
      "tok3648": 3663,
      "tok3649": 3664,
      "tok3650": 3665,
      "tok3651": 3666,
      "tok3652": 3667,
      "tok3653": 3668,
      "tok3654": 3669,
      "tok3655": 3670,
      "tok3656": 3671,
      "tok3657": 3672,
      "tok3658": 3673,
      "tok3659": 3674,
      "tok3660": 3675,
      "tok3661": 3676,
      "tok3662": 3677,
      "tok3663": 3678,
      "tok3664": 3679,
      "tok3665": 3680,
      "tok3666": 3681,
      "tok3667": 3682,
      "tok3668": 3683,
      "tok3669": 3684,
      "tok3670": 3685,
      "tok3671": 3686,
      "tok3672": 3687,
      "tok3673": 3688,
      "tok3674": 3689,
      "tok3675": 3690,
      "tok3676": 3691,
      "tok3677": 3692,
      "tok3678": 3693,
      "tok3679": 3694,
      "tok3680": 3695,
      "tok3681": 3696,
      "tok3682": 3697,
      "tok3683": 3698,
      "tok3684": 3699,
      "tok3685": 3700,
      "tok3686": 3701,
      "tok3687": 3702,
      "tok3688": 3703,
      "tok3689": 3704,
      "tok3690": 3705,
      "tok3691": 3706,
      "tok3692": 3707,
      "tok3693": 3708,
      "tok3694": 3709,
      "tok3695": 3710,
      "tok3696": 3711,
      "tok3697": 3712,
      "tok3698": 3713,
      "tok3699": 3714,
      "tok3700": 3715,
      "tok3701": 3716,
      "tok3702": 3717,
      "tok3703": 3718,
      "tok3704": 3719,
      "tok3705": 3720,
      "tok3706": 3721,
      "tok3707": 3722,
      "tok3708": 3723,
      "tok3709": 3724,
      "tok3710": 3725,
      "tok3711": 3726,
      "tok3712": 3727,
      "tok3713": 3728,
      "tok3714": 3729,
      "tok3715": 3730,
      "tok3716": 3731,
      "tok3717": 3732,
      "tok3718": 3733,
      "tok3719": 3734,
      "tok3720": 3735,
      "tok3721": 3736,
      "tok3722": 3737,
      "tok3723": 3738,
      "tok3724": 3739,
      "tok3725": 3740,
      "tok3726": 3741,
      "tok3727": 3742,
      "tok3728": 3743,
      "tok3729": 3744,
      "tok3730": 3745,
      "tok3731": 3746,
      "tok3732": 3747,
      "tok3733": 3748,
      "tok3734": 3749,
      "tok3735": 3750,
      "tok3736": 3751,
      "tok3737": 3752,
      "tok3738": 3753,
      "tok3739": 3754,
      "tok3740": 3755,
      "tok3741": 3756,
      "tok3742": 3757,
      "tok3743": 3758,
      "tok3744": 3759,
      "tok3745": 3760,
      "tok3746": 3761,
      "tok3747": 3762,
      "tok3748": 3763,
      "tok3749": 3764,
      "tok3750": 3765,
      "tok3751": 3766,
      "tok3752": 3767,
      "tok3753": 3768,
      "tok3754": 3769,
      "tok3755": 3770,
      "tok3756": 3771,
      "tok3757": 3772,
      "tok3758": 3773,
      "tok3759": 3774,
      "tok3760": 3775,
      "tok3761": 3776,
      "tok3762": 3777,
      "tok3763": 3778,
      "tok3764": 3779,
      "tok3765": 3780,
      "tok3766": 3781,
      "tok3767": 3782,
      "tok3768": 3783,
      "tok3769": 3784,
      "tok3770": 3785,
      "tok3771": 3786,
      "tok3772": 3787,
      "tok3773": 3788,
      "tok3774": 3789,
      "tok3775": 3790,
      "tok3776": 3791,
      "tok3777": 3792,
      "tok3778": 3793,
      "tok3779": 3794,
      "tok3780": 3795,
      "tok3781": 3796,
      "tok3782": 3797,
      "tok3783": 3798,
      "tok3784": 3799,
      "tok3785": 3800,
      "tok3786": 3801,
      "tok3787": 3802,
      "tok3788": 3803,
      "tok3789": 3804,
      "tok3790": 3805,
      "tok3791": 3806,
      "tok3792": 3807,
      "tok3793": 3808,
      "tok3794": 3809,
      "tok3795": 3810,
      "tok3796": 3811,
      "tok3797": 3812,
      "tok3798": 3813,
      "tok3799": 3814,
      "tok3800": 3815,
      "tok3801": 3816,
      "tok3802": 3817,
      "tok3803": 3818,
      "tok3804": 3819,
      "tok3805": 3820,
      "tok3806": 3821,
      "tok3807": 3822,
      "tok3808": 3823,
      "tok3809": 3824,
      "tok3810": 3825,
      "tok3811": 3826,
      "tok3812": 3827,
      "tok3813": 3828,
      "tok3814": 3829,
      "tok3815": 3830,
      "tok3816": 3831,
      "tok3817": 3832,
      "tok3818": 3833,
      "tok3819": 3834,
      "tok3820": 3835,
      "tok3821": 3836,
      "tok3822": 3837,
      "tok3823": 3838,
      "tok3824": 3839,
      "tok3825": 3840,
      "tok3826": 3841,
      "tok3827": 3842,
      "tok3828": 3843,
      "tok3829": 3844,
      "tok3830": 3845,
      "tok3831": 3846,
      "tok3832": 3847,
      "tok3833": 3848,
      "tok3834": 3849,
      "tok3835": 3850,
      "tok3836": 3851,
      "tok3837": 3852,
      "tok3838": 3853,
      "tok3839": 3854,
      "tok3840": 3855,
      "tok3841": 3856,
      "tok3842": 3857,
      "tok3843": 3858,
      "tok3844": 3859,
      "tok3845": 3860,
      "tok3846": 3861,
      "tok3847": 3862,
      "tok3848": 3863,
      "tok3849": 3864,
      "tok3850": 3865,
      "tok3851": 3866,
      "tok3852": 3867,
      "tok3853": 3868,
      "tok3854": 3869,
      "tok3855": 3870,
      "tok3856": 3871,
      "tok3857": 3872,
      "tok3858": 3873,
      "tok3859": 3874,
      "tok3860": 3875,
      "tok3861": 3876,
      "tok3862": 3877,
      "tok3863": 3878,
      "tok3864": 3879,
      "tok3865": 3880,
      "tok3866": 3881,
      "tok3867": 3882,
      "tok3868": 3883,
      "tok3869": 3884,
      "tok3870": 3885,
      "tok3871": 3886,
      "tok3872": 3887,
      "tok3873": 3888,
      "tok3874": 3889,
      "tok3875": 3890,
      "tok3876": 3891,
      "tok3877": 3892,
      "tok3878": 3893,
      "tok3879": 3894,
      "tok3880": 3895,
      "tok3881": 3896,
      "tok3882": 3897,
      "tok3883": 3898,
      "tok3884": 3899,
      "tok3885": 3900,
      "tok3886": 3901,
      "tok3887": 3902,
      "tok3888": 3903,
      "tok3889": 3904,
      "tok3890": 3905,
      "tok3891": 3906,
      "tok3892": 3907,
      "tok3893": 3908,
      "tok3894": 3909,
      "tok3895": 3910,
      "tok3896": 3911,
      "tok3897": 3912,
      "tok3898": 3913,
      "tok3899": 3914,
      "tok3900": 3915,
      "tok3901": 3916,
      "tok3902": 3917,
      "tok3903": 3918,
      "tok3904": 3919,
      "tok3905": 3920,
      "tok3906": 3921,
      "tok3907": 3922,
      "tok3908": 3923,
      "tok3909": 3924,
      "tok3910": 3925,
      "tok3911": 3926,
      "tok3912": 3927,
      "tok3913": 3928,
      "tok3914": 3929,
      "tok3915": 3930,
      "tok3916": 3931,
      "tok3917": 3932,
      "tok3918": 3933,
      "tok3919": 3934,
      "tok3920": 3935,
      "tok3921": 3936,
      "tok3922": 3937,
      "tok3923": 3938,
      "tok3924": 3939,
      "tok3925": 3940,
      "tok3926": 3941,
      "tok3927": 3942,
      "tok3928": 3943,
      "tok3929": 3944,
      "tok3930": 3945,
      "tok3931": 3946,
      "tok3932": 3947,
      "tok3933": 3948,
      "tok3934": 3949,
      "tok3935": 3950,
      "tok3936": 3951,
      "tok3937": 3952,
      "tok3938": 3953,
      "tok3939": 3954,
      "tok3940": 3955,
      "tok3941": 3956,
      "tok3942": 3957,
      "tok3943": 3958,
      "tok3944": 3959,
      "tok3945": 3960,
      "tok3946": 3961,
      "tok3947": 3962,
      "tok3948": 3963,
      "tok3949": 3964,
      "tok3950": 3965,
      "tok3951": 3966,
      "tok3952": 3967,
      "tok3953": 3968,
      "tok3954": 3969,
      "tok3955": 3970,
      "tok3956": 3971,
      "tok3957": 3972,
      "tok3958": 3973,
      "tok3959": 3974,
      "tok3960": 3975,
      "tok3961": 3976,
      "tok3962": 3977,
      "tok3963": 3978,
      "tok3964": 3979,
      "tok3965": 3980,
      "tok3966": 3981,
      "tok3967": 3982,
      "tok3968": 3983,
      "tok3969": 3984,
      "tok3970": 3985,
      "tok3971": 3986,
      "tok3972": 3987,
      "tok3973": 3988,
      "tok3974": 3989,
      "tok3975": 3990,
      "tok3976": 3991,
      "tok3977": 3992,
      "tok3978": 3993,
      "tok3979": 3994,
      "tok3980": 3995,
      "tok3981": 3996,
      "tok3982": 3997,
      "tok3983": 3998,
      "tok3984": 3999,
      "tok3985": 4000,
      "tok3986": 4001,
      "tok3987": 4002,
      "tok3988": 4003,
      "tok3989": 4004,
      "tok3990": 4005,
      "tok3991": 4006,
      "tok3992": 4007,
      "tok3993": 4008,
      "tok3994": 4009,
      "tok3995": 4010,
      "tok3996": 4011,
      "tok3997": 4012,
      "tok3998": 4013,
      "tok3999": 4014,
      "tok4000": 4015,
      "tok4001": 4016,
      "tok4002": 4017,
      "tok4003": 4018,
      "tok4004": 4019,
      "tok4005": 4020,
      "tok4006": 4021,
      "tok4007": 4022,
      "tok4008": 4023,
      "tok4009": 4024,
      "tok4010": 4025,
      "tok4011": 4026,
      "tok4012": 4027,
      "tok4013": 4028,
      "tok4014": 4029,
      "tok4015": 4030,
      "tok4016": 4031,
      "tok4017": 4032,
      "tok4018": 4033,
      "tok4019": 4034,
      "tok4020": 4035,
      "tok4021": 4036,
      "tok4022": 4037,
      "tok4023": 4038,
      "tok4024": 4039,
      "tok4025": 4040,
      "tok4026": 4041,
      "tok4027": 4042,
      "tok4028": 4043,
      "tok4029": 4044,
      "tok4030": 4045,
      "tok4031": 4046,
      "tok4032": 4047,
      "tok4033": 4048,
      "tok4034": 4049,
      "tok4035": 4050,
      "tok4036": 4051,
      "tok4037": 4052,
      "tok4038": 4053,
      "tok4039": 4054,
      "tok4040": 4055,
      "tok4041": 4056,
      "tok4042": 4057,
      "tok4043": 4058,
      "tok4044": 4059,
      "tok4045": 4060,
      "tok4046": 4061,
      "tok4047": 4062,
      "tok4048": 4063,
      "tok4049": 4064,
      "tok4050": 4065,
      "tok4051": 4066,
      "tok4052": 4067,
      "tok4053": 4068,
      "tok4054": 4069,
      "tok4055": 4070,
      "tok4056": 4071,
      "tok4057": 4072,
      "tok4058": 4073,
      "tok4059": 4074,
      "tok4060": 4075,
      "tok4061": 4076,
      "tok4062": 4077,
      "tok4063": 4078,
      "tok4064": 4079,
      "tok4065": 4080,
      "tok4066": 4081,
      "tok4067": 4082,
      "tok4068": 4083,
      "tok4069": 4084,
      "tok4070": 4085,
      "tok4071": 4086,
      "tok4072": 4087,
      "tok4073": 4088,
      "tok4074": 4089,
      "tok4075": 4090,
      "tok4076": 4091,
      "tok4077": 4092,
      "tok4078": 4093,
      "tok4079": 4094,
      "tok4080": 4095,
      "tok4081": 4096,
      "tok4082": 4097,
      "tok4083": 4098,
      "tok4084": 4099,
      "tok4085": 4100,
      "tok4086": 4101,
      "tok4087": 4102,
      "tok4088": 4103,
      "tok4089": 4104,
      "tok4090": 4105,
      "tok4091": 4106,
      "tok4092": 4107,
      "tok4093": 4108,
      "tok4094": 4109,
      "tok4095": 4110,
      "tok4096": 4111,
      "tok4097": 4112,
      "tok4098": 4113,
      "tok4099": 4114,
      "tok4100": 4115,
      "tok4101": 4116,
      "tok4102": 4117,
      "tok4103": 4118,
      "tok4104": 4119,
      "tok4105": 4120,
      "tok4106": 4121,
      "tok4107": 4122,
      "tok4108": 4123,
      "tok4109": 4124,
      "tok4110": 4125,
      "tok4111": 4126,
      "tok4112": 4127,
      "tok4113": 4128,
      "tok4114": 4129,
      "tok4115": 4130,
      "tok4116": 4131,
      "tok4117": 4132,
      "tok4118": 4133,
      "tok4119": 4134,
      "tok4120": 4135,
      "tok4121": 4136,
      "tok4122": 4137,
      "tok4123": 4138,
      "tok4124": 4139,
      "tok4125": 4140,
      "tok4126": 4141,
      "tok4127": 4142,
      "tok4128": 4143,
      "tok4129": 4144,
      "tok4130": 4145,
      "tok4131": 4146,
      "tok4132": 4147,
      "tok4133": 4148,
      "tok4134": 4149,
      "tok4135": 4150,
      "tok4136": 4151,
      "tok4137": 4152,
      "tok4138": 4153,
      "tok4139": 4154,
      "tok4140": 4155,
      "tok4141": 4156,
      "tok4142": 4157,
      "tok4143": 4158,
      "tok4144": 4159,
      "tok4145": 4160,
      "tok4146": 4161,
      "tok4147": 4162,
      "tok4148": 4163,
      "tok4149": 4164,
      "tok4150": 4165,
      "tok4151": 4166,
      "tok4152": 4167,
      "tok4153": 4168,
      "tok4154": 4169,
      "tok4155": 4170,
      "tok4156": 4171,
      "tok4157": 4172,
      "tok4158": 4173,
      "tok4159": 4174,
      "tok4160": 4175,
      "tok4161": 4176,
      "tok4162": 4177,
      "tok4163": 4178,
      "tok4164": 4179,
      "tok4165": 4180,
      "tok4166": 4181,
      "tok4167": 4182,
      "tok4168": 4183,
      "tok4169": 4184,
      "tok4170": 4185,
      "tok4171": 4186,
      "tok4172": 4187,
      "tok4173": 4188,
      "tok4174": 4189,
      "tok4175": 4190,
      "tok4176": 4191,
      "tok4177": 4192,
      "tok4178": 4193,
      "tok4179": 4194,
      "tok4180": 4195,
      "tok4181": 4196,
      "tok4182": 4197,
      "tok4183": 4198,
      "tok4184": 4199,
      "tok4185": 4200,
      "tok4186": 4201,
      "tok4187": 4202,
      "tok4188": 4203,
      "tok4189": 4204,
      "tok4190": 4205,
      "tok4191": 4206,
      "tok4192": 4207,
      "tok4193": 4208,
      "tok4194": 4209,
      "tok4195": 4210,
      "tok4196": 4211,
      "tok4197": 4212,
      "tok4198": 4213,
      "tok4199": 4214,
      "tok4200": 4215,
      "tok4201": 4216,
      "tok4202": 4217,
      "tok4203": 4218,
      "tok4204": 4219,
      "tok4205": 4220,
      "tok4206": 4221,
      "tok4207": 4222,
      "tok4208": 4223,
      "tok4209": 4224,
      "tok4210": 4225,
      "tok4211": 4226,
      "tok4212": 4227,
      "tok4213": 4228,
      "tok4214": 4229,
      "tok4215": 4230,
      "tok4216": 4231,
      "tok4217": 4232,
      "tok4218": 4233,
      "tok4219": 4234,
      "tok4220": 4235,
      "tok4221": 4236,
      "tok4222": 4237,
      "tok4223": 4238,
      "tok4224": 4239,
      "tok4225": 4240,
      "tok4226": 4241,
      "tok4227": 4242,
      "tok4228": 4243,
      "tok4229": 4244,
      "tok4230": 4245,
      "tok4231": 4246,
      "tok4232": 4247,
      "tok4233": 4248,
      "tok4234": 4249,
      "tok4235": 4250,
      "tok4236": 4251,
      "tok4237": 4252,
      "tok4238": 4253,
      "tok4239": 4254,
      "tok4240": 4255,
      "tok4241": 4256,
      "tok4242": 4257,
      "tok4243": 4258,
      "tok4244": 4259,
      "tok4245": 4260,
      "tok4246": 4261,
      "tok4247": 4262,
      "tok4248": 4263,
      "tok4249": 4264,
      "tok4250": 4265,
      "tok4251": 4266,
      "tok4252": 4267,
      "tok4253": 4268,
      "tok4254": 4269,
      "tok4255": 4270,
      "tok4256": 4271,
      "tok4257": 4272,
      "tok4258": 4273,
      "tok4259": 4274,
      "tok4260": 4275,
      "tok4261": 4276,
      "tok4262": 4277,
      "tok4263": 4278,
      "tok4264": 4279,
      "tok4265": 4280,
      "tok4266": 4281,
      "tok4267": 4282,
      "tok4268": 4283,
      "tok4269": 4284,
      "tok4270": 4285,
      "tok4271": 4286,
      "tok4272": 4287,
      "tok4273": 4288,
      "tok4274": 4289,
      "tok4275": 4290,
      "tok4276": 4291,
      "tok4277": 4292,
      "tok4278": 4293,
      "tok4279": 4294,
      "tok4280": 4295,
      "tok4281": 4296,
      "tok4282": 4297,
      "tok4283": 4298,
      "tok4284": 4299,
      "tok4285": 4300,
      "tok4286": 4301,
      "tok4287": 4302,
      "tok4288": 4303,
      "tok4289": 4304,
      "tok4290": 4305,
      "tok4291": 4306,
      "tok4292": 4307,
      "tok4293": 4308,
      "tok4294": 4309,
      "tok4295": 4310,
      "tok4296": 4311,
      "tok4297": 4312,
      "tok4298": 4313,
      "tok4299": 4314,
      "tok4300": 4315,
      "tok4301": 4316,
      "tok4302": 4317,
      "tok4303": 4318,
      "tok4304": 4319,
      "tok4305": 4320,
      "tok4306": 4321,
      "tok4307": 4322,
      "tok4308": 4323,
      "tok4309": 4324,
      "tok4310": 4325,
      "tok4311": 4326,
      "tok4312": 4327,
      "tok4313": 4328,
      "tok4314": 4329,
      "tok4315": 4330,
      "tok4316": 4331,
      "tok4317": 4332,
      "tok4318": 4333,
      "tok4319": 4334,
      "tok4320": 4335,
      "tok4321": 4336,
      "tok4322": 4337,
      "tok4323": 4338,
      "tok4324": 4339,
      "tok4325": 4340,
      "tok4326": 4341,
      "tok4327": 4342,
      "tok4328": 4343,
      "tok4329": 4344,
      "tok4330": 4345,
      "tok4331": 4346,
      "tok4332": 4347,
      "tok4333": 4348,
      "tok4334": 4349,
      "tok4335": 4350,
      "tok4336": 4351,
      "tok4337": 4352,
      "tok4338": 4353,
      "tok4339": 4354,
      "tok4340": 4355,
      "tok4341": 4356,
      "tok4342": 4357,
      "tok4343": 4358,
      "tok4344": 4359,
      "tok4345": 4360,
      "tok4346": 4361,
      "tok4347": 4362,
      "tok4348": 4363,
      "tok4349": 4364,
      "tok4350": 4365,
      "tok4351": 4366,
      "tok4352": 4367,
      "tok4353": 4368,
      "tok4354": 4369,
      "tok4355": 4370,
      "tok4356": 4371,
      "tok4357": 4372,
      "tok4358": 4373,
      "tok4359": 4374,
      "tok4360": 4375,
      "tok4361": 4376,
      "tok4362": 4377,
      "tok4363": 4378,
      "tok4364": 4379,
      "tok4365": 4380,
      "tok4366": 4381,
      "tok4367": 4382,
      "tok4368": 4383,
      "tok4369": 4384,
      "tok4370": 4385,
      "tok4371": 4386,
      "tok4372": 4387,
      "tok4373": 4388,
      "tok4374": 4389,
      "tok4375": 4390,
      "tok4376": 4391,
      "tok4377": 4392,
      "tok4378": 4393,
      "tok4379": 4394,
      "tok4380": 4395,
      "tok4381": 4396,
      "tok4382": 4397,
      "tok4383": 4398,
      "tok4384": 4399,
      "tok4385": 4400,
      "tok4386": 4401,
      "tok4387": 4402,
      "tok4388": 4403,
      "tok4389": 4404,
      "tok4390": 4405,
      "tok4391": 4406,
      "tok4392": 4407,
      "tok4393": 4408,
      "tok4394": 4409,
      "tok4395": 4410,
      "tok4396": 4411,
      "tok4397": 4412,
      "tok4398": 4413,
      "tok4399": 4414,
      "tok4400": 4415,
      "tok4401": 4416,
      "tok4402": 4417,
      "tok4403": 4418,
      "tok4404": 4419,
      "tok4405": 4420,
      "tok4406": 4421,
      "tok4407": 4422,
      "tok4408": 4423,
      "tok4409": 4424,
      "tok4410": 4425,
      "tok4411": 4426,
      "tok4412": 4427,
      "tok4413": 4428,
      "tok4414": 4429,
      "tok4415": 4430,
      "tok4416": 4431,
      "tok4417": 4432,
      "tok4418": 4433,
      "tok4419": 4434,
      "tok4420": 4435,
      "tok4421": 4436,
      "tok4422": 4437,
      "tok4423": 4438,
      "tok4424": 4439,
      "tok4425": 4440,
      "tok4426": 4441,
      "tok4427": 4442,
      "tok4428": 4443,
      "tok4429": 4444,
      "tok4430": 4445,
      "tok4431": 4446,
      "tok4432": 4447,
      "tok4433": 4448,
      "tok4434": 4449,
      "tok4435": 4450,
      "tok4436": 4451,
      "tok4437": 4452,
      "tok4438": 4453,
      "tok4439": 4454,
      "tok4440": 4455,
      "tok4441": 4456,
      "tok4442": 4457,
      "tok4443": 4458,
      "tok4444": 4459,
      "tok4445": 4460,
      "tok4446": 4461,
      "tok4447": 4462,
      "tok4448": 4463,
      "tok4449": 4464,
      "tok4450": 4465,
      "tok4451": 4466,
      "tok4452": 4467,
      "tok4453": 4468,
      "tok4454": 4469,
      "tok4455": 4470,
      "tok4456": 4471,
      "tok4457": 4472,
      "tok4458": 4473,
      "tok4459": 4474,
      "tok4460": 4475,
      "tok4461": 4476,
      "tok4462": 4477,
      "tok4463": 4478,
      "tok4464": 4479,
      "tok4465": 4480,
      "tok4466": 4481,
      "tok4467": 4482,
      "tok4468": 4483,
      "tok4469": 4484,
      "tok4470": 4485,
      "tok4471": 4486,
      "tok4472": 4487,
      "tok4473": 4488,
      "tok4474": 4489,
      "tok4475": 4490,
      "tok4476": 4491,
      "tok4477": 4492,
      "tok4478": 4493,
      "tok4479": 4494,
      "tok4480": 4495,
      "tok4481": 4496,
      "tok4482": 4497,
      "tok4483": 4498,
      "tok4484": 4499,
      "tok4485": 4500,
      "tok4486": 4501,
      "tok4487": 4502,
      "tok4488": 4503,
      "tok4489": 4504,
      "tok4490": 4505,
      "tok4491": 4506,
      "tok4492": 4507,
      "tok4493": 4508,
      "tok4494": 4509,
      "tok4495": 4510,
      "tok4496": 4511,
      "tok4497": 4512,
      "tok4498": 4513,
      "tok4499": 4514,
      "tok4500": 4515,
      "tok4501": 4516,
      "tok4502": 4517,
      "tok4503": 4518,
      "tok4504": 4519,
      "tok4505": 4520,
      "tok4506": 4521,
      "tok4507": 4522,
      "tok4508": 4523,
      "tok4509": 4524,
      "tok4510": 4525,
      "tok4511": 4526,
      "tok4512": 4527,
      "tok4513": 4528,
      "tok4514": 4529,
      "tok4515": 4530,
      "tok4516": 4531,
      "tok4517": 4532,
      "tok4518": 4533,
      "tok4519": 4534,
      "tok4520": 4535,
      "tok4521": 4536,
      "tok4522": 4537,
      "tok4523": 4538,
      "tok4524": 4539,
      "tok4525": 4540,
      "tok4526": 4541,
      "tok4527": 4542,
      "tok4528": 4543,
      "tok4529": 4544,
      "tok4530": 4545,
      "tok4531": 4546,
      "tok4532": 4547,
      "tok4533": 4548,
      "tok4534": 4549,
      "tok4535": 4550,
      "tok4536": 4551,
      "tok4537": 4552,
      "tok4538": 4553,
      "tok4539": 4554,
      "tok4540": 4555,
      "tok4541": 4556,
      "tok4542": 4557,
      "tok4543": 4558,
      "tok4544": 4559,
      "tok4545": 4560,
      "tok4546": 4561,
      "tok4547": 4562,
      "tok4548": 4563,
      "tok4549": 4564,
      "tok4550": 4565,
      "tok4551": 4566,
      "tok4552": 4567,
      "tok4553": 4568,
      "tok4554": 4569,
      "tok4555": 4570,
      "tok4556": 4571,
      "tok4557": 4572,
      "tok4558": 4573,
      "tok4559": 4574,
      "tok4560": 4575,
      "tok4561": 4576,
      "tok4562": 4577,
      "tok4563": 4578,
      "tok4564": 4579,
      "tok4565": 4580,
      "tok4566": 4581,
      "tok4567": 4582,
      "tok4568": 4583,
      "tok4569": 4584,
      "tok4570": 4585,
      "tok4571": 4586,
      "tok4572": 4587,
      "tok4573": 4588,
      "tok4574": 4589,
      "tok4575": 4590,
      "tok4576": 4591,
      "tok4577": 4592,
      "tok4578": 4593,
      "tok4579": 4594,
      "tok4580": 4595,
      "tok4581": 4596,
      "tok4582": 4597,
      "tok4583": 4598,
      "tok4584": 4599,
      "tok4585": 4600,
      "tok4586": 4601,
      "tok4587": 4602,
      "tok4588": 4603,
      "tok4589": 4604,
      "tok4590": 4605,
      "tok4591": 4606,
      "tok4592": 4607,
      "tok4593": 4608,
      "tok4594": 4609,
      "tok4595": 4610,
      "tok4596": 4611,
      "tok4597": 4612,
      "tok4598": 4613,
      "tok4599": 4614,
      "tok4600": 4615,
      "tok4601": 4616,
      "tok4602": 4617,
      "tok4603": 4618,
      "tok4604": 4619,
      "tok4605": 4620,
      "tok4606": 4621,
      "tok4607": 4622,
      "tok4608": 4623,
      "tok4609": 4624,
      "tok4610": 4625,
      "tok4611": 4626,
      "tok4612": 4627,
      "tok4613": 4628,
      "tok4614": 4629,
      "tok4615": 4630,
      "tok4616": 4631,
      "tok4617": 4632,
      "tok4618": 4633,
      "tok4619": 4634,
      "tok4620": 4635,
      "tok4621": 4636,
      "tok4622": 4637,
      "tok4623": 4638,
      "tok4624": 4639,
      "tok4625": 4640,
      "tok4626": 4641,
      "tok4627": 4642,
      "tok4628": 4643,
      "tok4629": 4644,
      "tok4630": 4645,
      "tok4631": 4646,
      "tok4632": 4647,
      "tok4633": 4648,
      "tok4634": 4649,
      "tok4635": 4650,
      "tok4636": 4651,
      "tok4637": 4652,
      "tok4638": 4653,
      "tok4639": 4654,
      "tok4640": 4655,
      "tok4641": 4656,
      "tok4642": 4657,
      "tok4643": 4658,
      "tok4644": 4659,
      "tok4645": 4660,
      "tok4646": 4661,
      "tok4647": 4662,
      "tok4648": 4663,
      "tok4649": 4664,
      "tok4650": 4665,
      "tok4651": 4666,
      "tok4652": 4667,
      "tok4653": 4668,
      "tok4654": 4669,
      "tok4655": 4670,
      "tok4656": 4671,
      "tok4657": 4672,
      "tok4658": 4673,
      "tok4659": 4674,
      "tok4660": 4675,
      "tok4661": 4676,
      "tok4662": 4677,
      "tok4663": 4678,
      "tok4664": 4679,
      "tok4665": 4680,
      "tok4666": 4681,
      "tok4667": 4682,
      "tok4668": 4683,
      "tok4669": 4684,
      "tok4670": 4685,
      "tok4671": 4686,
      "tok4672": 4687,
      "tok4673": 4688,
      "tok4674": 4689,
      "tok4675": 4690,
      "tok4676": 4691,
      "tok4677": 4692,
      "tok4678": 4693,
      "tok4679": 4694,
      "tok4680": 4695,
      "tok4681": 4696,
      "tok4682": 4697,
      "tok4683": 4698,
      "tok4684": 4699,
      "tok4685": 4700,
      "tok4686": 4701,
      "tok4687": 4702,
      "tok4688": 4703,
      "tok4689": 4704,
      "tok4690": 4705,
      "tok4691": 4706,
      "tok4692": 4707,
      "tok4693": 4708,
      "tok4694": 4709,
      "tok4695": 4710,
      "tok4696": 4711,
      "tok4697": 4712,
      "tok4698": 4713,
      "tok4699": 4714,
      "tok4700": 4715,
      "tok4701": 4716,
      "tok4702": 4717,
      "tok4703": 4718,
      "tok4704": 4719,
      "tok4705": 4720,
      "tok4706": 4721,
      "tok4707": 4722,
      "tok4708": 4723,
      "tok4709": 4724,
      "tok4710": 4725,
      "tok4711": 4726,
      "tok4712": 4727,
      "tok4713": 4728,
      "tok4714": 4729,
      "tok4715": 4730,
      "tok4716": 4731,
      "tok4717": 4732,
      "tok4718": 4733,
      "tok4719": 4734,
      "tok4720": 4735,
      "tok4721": 4736,
      "tok4722": 4737,
      "tok4723": 4738,
      "tok4724": 4739,
      "tok4725": 4740,
      "tok4726": 4741,
      "tok4727": 4742,
      "tok4728": 4743,
      "tok4729": 4744,
      "tok4730": 4745,
      "tok4731": 4746,
      "tok4732": 4747,
      "tok4733": 4748,
      "tok4734": 4749,
      "tok4735": 4750,
      "tok4736": 4751,
      "tok4737": 4752,
      "tok4738": 4753,
      "tok4739": 4754,
      "tok4740": 4755,
      "tok4741": 4756,
      "tok4742": 4757,
      "tok4743": 4758,
      "tok4744": 4759,
      "tok4745": 4760,
      "tok4746": 4761,
      "tok4747": 4762,
      "tok4748": 4763,
      "tok4749": 4764,
      "tok4750": 4765,
      "tok4751": 4766,
      "tok4752": 4767,
      "tok4753": 4768,
      "tok4754": 4769,
      "tok4755": 4770,
      "tok4756": 4771,
      "tok4757": 4772,
      "tok4758": 4773,
      "tok4759": 4774,
      "tok4760": 4775,
      "tok4761": 4776,
      "tok4762": 4777,
      "tok4763": 4778,
      "tok4764": 4779,
      "tok4765": 4780,
      "tok4766": 4781,
      "tok4767": 4782,
      "tok4768": 4783,
      "tok4769": 4784,
      "tok4770": 4785,
      "tok4771": 4786,
      "tok4772": 4787,
      "tok4773": 4788,
      "tok4774": 4789,
      "tok4775": 4790,
      "tok4776": 4791,
      "tok4777": 4792,
      "tok4778": 4793,
      "tok4779": 4794,
      "tok4780": 4795,
      "tok4781": 4796,
      "tok4782": 4797,
      "tok4783": 4798,
      "tok4784": 4799,
      "tok4785": 4800,
      "tok4786": 4801,
      "tok4787": 4802,
      "tok4788": 4803,
      "tok4789": 4804,
      "tok4790": 4805,
      "tok4791": 4806,
      "tok4792": 4807,
      "tok4793": 4808,
      "tok4794": 4809,
      "tok4795": 4810,
      "tok4796": 4811,
      "tok4797": 4812,
      "tok4798": 4813,
      "tok4799": 4814,
      "tok4800": 4815,
      "tok4801": 4816,
      "tok4802": 4817,
      "tok4803": 4818,
      "tok4804": 4819,
      "tok4805": 4820,
      "tok4806": 4821,
      "tok4807": 4822,
      "tok4808": 4823,
      "tok4809": 4824,
      "tok4810": 4825,
      "tok4811": 4826,
      "tok4812": 4827,
      "tok4813": 4828,
      "tok4814": 4829,
      "tok4815": 4830,
      "tok4816": 4831,
      "tok4817": 4832,
      "tok4818": 4833,
      "tok4819": 4834,
      "tok4820": 4835,
      "tok4821": 4836,
      "tok4822": 4837,
      "tok4823": 4838,
      "tok4824": 4839,
      "tok4825": 4840,
      "tok4826": 4841,
      "tok4827": 4842,
      "tok4828": 4843,
      "tok4829": 4844,
      "tok4830": 4845,
      "tok4831": 4846,
      "tok4832": 4847,
      "tok4833": 4848,
      "tok4834": 4849,
      "tok4835": 4850,
      "tok4836": 4851,
      "tok4837": 4852,
      "tok4838": 4853,
      "tok4839": 4854,
      "tok4840": 4855,
      "tok4841": 4856,
      "tok4842": 4857,
      "tok4843": 4858,
      "tok4844": 4859,
      "tok4845": 4860,
      "tok4846": 4861,
      "tok4847": 4862,
      "tok4848": 4863,
      "tok4849": 4864,
      "tok4850": 4865,
      "tok4851": 4866,
      "tok4852": 4867,
      "tok4853": 4868,
      "tok4854": 4869,
      "tok4855": 4870,
      "tok4856": 4871,
      "tok4857": 4872,
      "tok4858": 4873,
      "tok4859": 4874,
      "tok4860": 4875,
      "tok4861": 4876,
      "tok4862": 4877,
      "tok4863": 4878,
      "tok4864": 4879,
      "tok4865": 4880,
      "tok4866": 4881,
      "tok4867": 4882,
      "tok4868": 4883,
      "tok4869": 4884,
      "tok4870": 4885,
      "tok4871": 4886,
      "tok4872": 4887,
      "tok4873": 4888,
      "tok4874": 4889,
      "tok4875": 4890,
      "tok4876": 4891,
      "tok4877": 4892,
      "tok4878": 4893,
      "tok4879": 4894,
      "tok4880": 4895,
      "tok4881": 4896,
      "tok4882": 4897,
      "tok4883": 4898,
      "tok4884": 4899,
      "tok4885": 4900,
      "tok4886": 4901,
      "tok4887": 4902,
      "tok4888": 4903,
      "tok4889": 4904,
      "tok4890": 4905,
      "tok4891": 4906,
      "tok4892": 4907,
      "tok4893": 4908,
      "tok4894": 4909,
      "tok4895": 4910,
      "tok4896": 4911,
      "tok4897": 4912,
      "tok4898": 4913,
      "tok4899": 4914,
      "tok4900": 4915,
      "tok4901": 4916,
      "tok4902": 4917,
      "tok4903": 4918,
      "tok4904": 4919,
      "tok4905": 4920,
      "tok4906": 4921,
      "tok4907": 4922,
      "tok4908": 4923,
      "tok4909": 4924,
      "tok4910": 4925,
      "tok4911": 4926,
      "tok4912": 4927,
      "tok4913": 4928,
      "tok4914": 4929,
      "tok4915": 4930,
      "tok4916": 4931,
      "tok4917": 4932,
      "tok4918": 4933,
      "tok4919": 4934,
      "tok4920": 4935,
      "tok4921": 4936,
      "tok4922": 4937,
      "tok4923": 4938,
      "tok4924": 4939,
      "tok4925": 4940,
      "tok4926": 4941,
      "tok4927": 4942,
      "tok4928": 4943,
      "tok4929": 4944,
      "tok4930": 4945,
      "tok4931": 4946,
      "tok4932": 4947,
      "tok4933": 4948,
      "tok4934": 4949,
      "tok4935": 4950,
      "tok4936": 4951,
      "tok4937": 4952,
      "tok4938": 4953,
      "tok4939": 4954,
      "tok4940": 4955,
      "tok4941": 4956,
      "tok4942": 4957,
      "tok4943": 4958,
      "tok4944": 4959,
      "tok4945": 4960,
      "tok4946": 4961,
      "tok4947": 4962,
      "tok4948": 4963,
      "tok4949": 4964,
      "tok4950": 4965,
      "tok4951": 4966,
      "tok4952": 4967,
      "tok4953": 4968,
      "tok4954": 4969,
      "tok4955": 4970,
      "tok4956": 4971,
      "tok4957": 4972,
      "tok4958": 4973,
      "tok4959": 4974,
      "tok4960": 4975,
      "tok4961": 4976,
      "tok4962": 4977,
      "tok4963": 4978,
      "tok4964": 4979,
      "tok4965": 4980,
      "tok4966": 4981,
      "tok4967": 4982,
      "tok4968": 4983,
      "tok4969": 4984,
      "tok4970": 4985,
      "tok4971": 4986,
      "tok4972": 4987,
      "tok4973": 4988,
      "tok4974": 4989,
      "tok4975": 4990,
      "tok4976": 4991,
      "tok4977": 4992,
      "tok4978": 4993,
      "tok4979": 4994,
      "tok4980": 4995,
      "tok4981": 4996,
      "tok4982": 4997,
      "tok4983": 4998,
      "tok4984": 4999,
      "tok4985": 5000,
      "tok4986": 5001,
      "tok4987": 5002,
      "tok4988": 5003,
      "tok4989": 5004,
      "tok4990": 5005,
      "tok4991": 5006,
      "tok4992": 5007,
      "tok4993": 5008,
      "tok4994": 5009,
      "tok4995": 5010,
      "tok4996": 5011,
      "tok4997": 5012,
      "tok4998": 5013,
      "tok4999": 5014,
      "tok5000": 5015,
      "tok5001": 5016,
      "tok5002": 5017,
      "tok5003": 5018,
      "tok5004": 5019,
      "tok5005": 5020,
      "tok5006": 5021,
      "tok5007": 5022,
      "tok5008": 5023,
      "tok5009": 5024,
      "tok5010": 5025,
      "tok5011": 5026,
      "tok5012": 5027,
      "tok5013": 5028,
      "tok5014": 5029,
      "tok5015": 5030,
      "tok5016": 5031,
      "tok5017": 5032,
      "tok5018": 5033,
      "tok5019": 5034,
      "tok5020": 5035,
      "tok5021": 5036,
      "tok5022": 5037,
      "tok5023": 5038,
      "tok5024": 5039,
      "tok5025": 5040,
      "tok5026": 5041,
      "tok5027": 5042,
      "tok5028": 5043,
      "tok5029": 5044,
      "tok5030": 5045,
      "tok5031": 5046,
      "tok5032": 5047,
      "tok5033": 5048,
      "tok5034": 5049,
      "tok5035": 5050,
      "tok5036": 5051,
      "tok5037": 5052,
      "tok5038": 5053,
      "tok5039": 5054,
      "tok5040": 5055,
      "tok5041": 5056,
      "tok5042": 5057,
      "tok5043": 5058,
      "tok5044": 5059,
      "tok5045": 5060,
      "tok5046": 5061,
      "tok5047": 5062,
      "tok5048": 5063,
      "tok5049": 5064,
      "tok5050": 5065,
      "tok5051": 5066,
      "tok5052": 5067,
      "tok5053": 5068,
      "tok5054": 5069,
      "tok5055": 5070,
      "tok5056": 5071,
      "tok5057": 5072,
      "tok5058": 5073,
      "tok5059": 5074,
      "tok5060": 5075,
      "tok5061": 5076,
      "tok5062": 5077,
      "tok5063": 5078,
      "tok5064": 5079,
      "tok5065": 5080,
      "tok5066": 5081,
      "tok5067": 5082,
      "tok5068": 5083,
      "tok5069": 5084,
      "tok5070": 5085,
      "tok5071": 5086,
      "tok5072": 5087,
      "tok5073": 5088,
      "tok5074": 5089,
      "tok5075": 5090,
      "tok5076": 5091,
      "tok5077": 5092,
      "tok5078": 5093,
      "tok5079": 5094,
      "tok5080": 5095,
      "tok5081": 5096,
      "tok5082": 5097,
      "tok5083": 5098,
      "tok5084": 5099,
      "tok5085": 5100,
      "tok5086": 5101,
      "tok5087": 5102,
      "tok5088": 5103,
      "tok5089": 5104,
      "tok5090": 5105,
      "tok5091": 5106,
      "tok5092": 5107,
      "tok5093": 5108,
      "tok5094": 5109,
      "tok5095": 5110,
      "tok5096": 5111,
      "tok5097": 5112,
      "tok5098": 5113,
      "tok5099": 5114,
      "tok5100": 5115,
      "tok5101": 5116,
      "tok5102": 5117,
      "tok5103": 5118,
      "tok5104": 5119,
      "tok5105": 5120,
      "tok5106": 5121,
      "tok5107": 5122,
      "tok5108": 5123,
      "tok5109": 5124,
      "tok5110": 5125,
      "tok5111": 5126,
      "tok5112": 5127,
      "tok5113": 5128,
      "tok5114": 5129,
      "tok5115": 5130,
      "tok5116": 5131,
      "tok5117": 5132,
      "tok5118": 5133,
      "tok5119": 5134,
      "tok5120": 5135,
      "tok5121": 5136,
      "tok5122": 5137,
      "tok5123": 5138,
      "tok5124": 5139,
      "tok5125": 5140,
      "tok5126": 5141,
      "tok5127": 5142,
      "tok5128": 5143,
      "tok5129": 5144,
      "tok5130": 5145,
      "tok5131": 5146,
      "tok5132": 5147,
      "tok5133": 5148,
      "tok5134": 5149,
      "tok5135": 5150,
      "tok5136": 5151,
      "tok5137": 5152,
      "tok5138": 5153,
      "tok5139": 5154,
      "tok5140": 5155,
      "tok5141": 5156,
      "tok5142": 5157,
      "tok5143": 5158,
      "tok5144": 5159,
      "tok5145": 5160,
      "tok5146": 5161,
      "tok5147": 5162,
      "tok5148": 5163,
      "tok5149": 5164,
      "tok5150": 5165,
      "tok5151": 5166,
      "tok5152": 5167,
      "tok5153": 5168,
      "tok5154": 5169,
      "tok5155": 5170,
      "tok5156": 5171,
      "tok5157": 5172,
      "tok5158": 5173,
      "tok5159": 5174,
      "tok5160": 5175,
      "tok5161": 5176,
      "tok5162": 5177,
      "tok5163": 5178,
      "tok5164": 5179,
      "tok5165": 5180,
      "tok5166": 5181,
      "tok5167": 5182,
      "tok5168": 5183,
      "tok5169": 5184,
      "tok5170": 5185,
      "tok5171": 5186,
      "tok5172": 5187,
      "tok5173": 5188,
      "tok5174": 5189,
      "tok5175": 5190,
      "tok5176": 5191,
      "tok5177": 5192,
      "tok5178": 5193,
      "tok5179": 5194,
      "tok5180": 5195,
      "tok5181": 5196,
      "tok5182": 5197,
      "tok5183": 5198,
      "tok5184": 5199,
      "tok5185": 5200,
      "tok5186": 5201,
      "tok5187": 5202,
      "tok5188": 5203,
      "tok5189": 5204,
      "tok5190": 5205,
      "tok5191": 5206,
      "tok5192": 5207,
      "tok5193": 5208,
      "tok5194": 5209,
      "tok5195": 5210,
      "tok5196": 5211,
      "tok5197": 5212,
      "tok5198": 5213,
      "tok5199": 5214,
      "tok5200": 5215,
      "tok5201": 5216,
      "tok5202": 5217,
      "tok5203": 5218,
      "tok5204": 5219,
      "tok5205": 5220,
      "tok5206": 5221,
      "tok5207": 5222,
      "tok5208": 5223,
      "tok5209": 5224,
      "tok5210": 5225,
      "tok5211": 5226,
      "tok5212": 5227,
      "tok5213": 5228,
      "tok5214": 5229,
      "tok5215": 5230,
      "tok5216": 5231,
      "tok5217": 5232,
      "tok5218": 5233,
      "tok5219": 5234,
      "tok5220": 5235,
      "tok5221": 5236,
      "tok5222": 5237,
      "tok5223": 5238,
      "tok5224": 5239,
      "tok5225": 5240,
      "tok5226": 5241,
      "tok5227": 5242,
      "tok5228": 5243,
      "tok5229": 5244,
      "tok5230": 5245,
      "tok5231": 5246,
      "tok5232": 5247,
      "tok5233": 5248,
      "tok5234": 5249,
      "tok5235": 5250,
      "tok5236": 5251,
      "tok5237": 5252,
      "tok5238": 5253,
      "tok5239": 5254,
      "tok5240": 5255,
      "tok5241": 5256,
      "tok5242": 5257,
      "tok5243": 5258,
      "tok5244": 5259,
      "tok5245": 5260,
      "tok5246": 5261,
      "tok5247": 5262,
      "tok5248": 5263,
      "tok5249": 5264,
      "tok5250": 5265,
      "tok5251": 5266,
      "tok5252": 5267,
      "tok5253": 5268,
      "tok5254": 5269,
      "tok5255": 5270,
      "tok5256": 5271,
      "tok5257": 5272,
      "tok5258": 5273,
      "tok5259": 5274,
      "tok5260": 5275,
      "tok5261": 5276,
      "tok5262": 5277,
      "tok5263": 5278,
      "tok5264": 5279,
      "tok5265": 5280,
      "tok5266": 5281,
      "tok5267": 5282,
      "tok5268": 5283,
      "tok5269": 5284,
      "tok5270": 5285,
      "tok5271": 5286,
      "tok5272": 5287,
      "tok5273": 5288,
      "tok5274": 5289,
      "tok5275": 5290,
      "tok5276": 5291,
      "tok5277": 5292,
      "tok5278": 5293,
      "tok5279": 5294,
      "tok5280": 5295,
      "tok5281": 5296,
      "tok5282": 5297,
      "tok5283": 5298,
      "tok5284": 5299,
      "tok5285": 5300,
      "tok5286": 5301,
      "tok5287": 5302,
      "tok5288": 5303,
      "tok5289": 5304,
      "tok5290": 5305,
      "tok5291": 5306,
      "tok5292": 5307,
      "tok5293": 5308,
      "tok5294": 5309,
      "tok5295": 5310,
      "tok5296": 5311,
      "tok5297": 5312,
      "tok5298": 5313,
      "tok5299": 5314,
      "tok5300": 5315,
      "tok5301": 5316,
      "tok5302": 5317,
      "tok5303": 5318,
      "tok5304": 5319,
      "tok5305": 5320,
      "tok5306": 5321,
      "tok5307": 5322,
      "tok5308": 5323,
      "tok5309": 5324,
      "tok5310": 5325,
      "tok5311": 5326,
      "tok5312": 5327,
      "tok5313": 5328,
      "tok5314": 5329,
      "tok5315": 5330,
      "tok5316": 5331,
      "tok5317": 5332,
      "tok5318": 5333,
      "tok5319": 5334,
      "tok5320": 5335,
      "tok5321": 5336,
      "tok5322": 5337,
      "tok5323": 5338,
      "tok5324": 5339,
      "tok5325": 5340,
      "tok5326": 5341,
      "tok5327": 5342,
      "tok5328": 5343,
      "tok5329": 5344,
      "tok5330": 5345,
      "tok5331": 5346,
      "tok5332": 5347,
      "tok5333": 5348,
      "tok5334": 5349,
      "tok5335": 5350,
      "tok5336": 5351,
      "tok5337": 5352,
      "tok5338": 5353,
      "tok5339": 5354,
      "tok5340": 5355,
      "tok5341": 5356,
      "tok5342": 5357,
      "tok5343": 5358,
      "tok5344": 5359,
      "tok5345": 5360,
      "tok5346": 5361,
      "tok5347": 5362,
      "tok5348": 5363,
      "tok5349": 5364,
      "tok5350": 5365,
      "tok5351": 5366,
      "tok5352": 5367,
      "tok5353": 5368,
      "tok5354": 5369,
      "tok5355": 5370,
      "tok5356": 5371,
      "tok5357": 5372,
      "tok5358": 5373,
      "tok5359": 5374,
      "tok5360": 5375,
      "tok5361": 5376,
      "tok5362": 5377,
      "tok5363": 5378,
      "tok5364": 5379,
      "tok5365": 5380,
      "tok5366": 5381,
      "tok5367": 5382,
      "tok5368": 5383,
      "tok5369": 5384,
      "tok5370": 5385,
      "tok5371": 5386,
      "tok5372": 5387,
      "tok5373": 5388,
      "tok5374": 5389,
      "tok5375": 5390,
      "tok5376": 5391,
      "tok5377": 5392,
      "tok5378": 5393,
      "tok5379": 5394,
      "tok5380": 5395,
      "tok5381": 5396,
      "tok5382": 5397,
      "tok5383": 5398,
      "tok5384": 5399,
      "tok5385": 5400,
      "tok5386": 5401,
      "tok5387": 5402,
      "tok5388": 5403,
      "tok5389": 5404,
      "tok5390": 5405,
      "tok5391": 5406,
      "tok5392": 5407,
      "tok5393": 5408,
      "tok5394": 5409,
      "tok5395": 5410,
      "tok5396": 5411,
      "tok5397": 5412,
      "tok5398": 5413,
      "tok5399": 5414,
      "tok5400": 5415,
      "tok5401": 5416,
      "tok5402": 5417,
      "tok5403": 5418,
      "tok5404": 5419,
      "tok5405": 5420,
      "tok5406": 5421,
      "tok5407": 5422,
      "tok5408": 5423,
      "tok5409": 5424,
      "tok5410": 5425,
      "tok5411": 5426,
      "tok5412": 5427,
      "tok5413": 5428,
      "tok5414": 5429,
      "tok5415": 5430,
      "tok5416": 5431,
      "tok5417": 5432,
      "tok5418": 5433,
      "tok5419": 5434,
      "tok5420": 5435,
      "tok5421": 5436,
      "tok5422": 5437,
      "tok5423": 5438,
      "tok5424": 5439,
      "tok5425": 5440,
      "tok5426": 5441,
      "tok5427": 5442,
      "tok5428": 5443,
      "tok5429": 5444,
      "tok5430": 5445,
      "tok5431": 5446,
      "tok5432": 5447,
      "tok5433": 5448,
      "tok5434": 5449,
      "tok5435": 5450,
      "tok5436": 5451,
      "tok5437": 5452,
      "tok5438": 5453,
      "tok5439": 5454,
      "tok5440": 5455,
      "tok5441": 5456,
      "tok5442": 5457,
      "tok5443": 5458,
      "tok5444": 5459,
      "tok5445": 5460,
      "tok5446": 5461,
      "tok5447": 5462,
      "tok5448": 5463,
      "tok5449": 5464,
      "tok5450": 5465,
      "tok5451": 5466,
      "tok5452": 5467,
      "tok5453": 5468,
      "tok5454": 5469,
      "tok5455": 5470,
      "tok5456": 5471,
      "tok5457": 5472,
      "tok5458": 5473,
      "tok5459": 5474,
      "tok5460": 5475,
      "tok5461": 5476,
      "tok5462": 5477,
      "tok5463": 5478,
      "tok5464": 5479,
      "tok5465": 5480,
      "tok5466": 5481,
      "tok5467": 5482,
      "tok5468": 5483,
      "tok5469": 5484,
      "tok5470": 5485,
      "tok5471": 5486,
      "tok5472": 5487,
      "tok5473": 5488,
      "tok5474": 5489,
      "tok5475": 5490,
      "tok5476": 5491,
      "tok5477": 5492,
      "tok5478": 5493,
      "tok5479": 5494,
      "tok5480": 5495,
      "tok5481": 5496,
      "tok5482": 5497,
      "tok5483": 5498,
      "tok5484": 5499,
      "tok5485": 5500,
      "tok5486": 5501,
      "tok5487": 5502,
      "tok5488": 5503,
      "tok5489": 5504,
      "tok5490": 5505,
      "tok5491": 5506,
      "tok5492": 5507,
      "tok5493": 5508,
      "tok5494": 5509,
      "tok5495": 5510,
      "tok5496": 5511,
      "tok5497": 5512,
      "tok5498": 5513,
      "tok5499": 5514,
      "tok5500": 5515,
      "tok5501": 5516,
      "tok5502": 5517,
      "tok5503": 5518,
      "tok5504": 5519,
      "tok5505": 5520,
      "tok5506": 5521,
      "tok5507": 5522,
      "tok5508": 5523,
      "tok5509": 5524,
      "tok5510": 5525,
      "tok5511": 5526,
      "tok5512": 5527,
      "tok5513": 5528,
      "tok5514": 5529,
      "tok5515": 5530,
      "tok5516": 5531,
      "tok5517": 5532,
      "tok5518": 5533,
      "tok5519": 5534,
      "tok5520": 5535,
      "tok5521": 5536,
      "tok5522": 5537,
      "tok5523": 5538,
      "tok5524": 5539,
      "tok5525": 5540,
      "tok5526": 5541,
      "tok5527": 5542,
      "tok5528": 5543,
      "tok5529": 5544,
      "tok5530": 5545,
      "tok5531": 5546,
      "tok5532": 5547,
      "tok5533": 5548,
      "tok5534": 5549,
      "tok5535": 5550,
      "tok5536": 5551,
      "tok5537": 5552,
      "tok5538": 5553,
      "tok5539": 5554,
      "tok5540": 5555,
      "tok5541": 5556,
      "tok5542": 5557,
      "tok5543": 5558,
      "tok5544": 5559,
      "tok5545": 5560,
      "tok5546": 5561,
      "tok5547": 5562,
      "tok5548": 5563,
      "tok5549": 5564,
      "tok5550": 5565,
      "tok5551": 5566,
      "tok5552": 5567,
      "tok5553": 5568,
      "tok5554": 5569,
      "tok5555": 5570,
      "tok5556": 5571,
      "tok5557": 5572,
      "tok5558": 5573,
      "tok5559": 5574,
      "tok5560": 5575,
      "tok5561": 5576,
      "tok5562": 5577,
      "tok5563": 5578,
      "tok5564": 5579,
      "tok5565": 5580,
      "tok5566": 5581,
      "tok5567": 5582,
      "tok5568": 5583,
      "tok5569": 5584,
      "tok5570": 5585,
      "tok5571": 5586,
      "tok5572": 5587,
      "tok5573": 5588,
      "tok5574": 5589,
      "tok5575": 5590,
      "tok5576": 5591,
      "tok5577": 5592,
      "tok5578": 5593,
      "tok5579": 5594,
      "tok5580": 5595,
      "tok5581": 5596,
      "tok5582": 5597,
      "tok5583": 5598,
      "tok5584": 5599,
      "tok5585": 5600,
      "tok5586": 5601,
      "tok5587": 5602,
      "tok5588": 5603,
      "tok5589": 5604,
      "tok5590": 5605,
      "tok5591": 5606,
      "tok5592": 5607,
      "tok5593": 5608,
      "tok5594": 5609,
      "tok5595": 5610,
      "tok5596": 5611,
      "tok5597": 5612,
      "tok5598": 5613,
      "tok5599": 5614,
      "tok5600": 5615,
      "tok5601": 5616,
      "tok5602": 5617,
      "tok5603": 5618,
      "tok5604": 5619,
      "tok5605": 5620,
      "tok5606": 5621,
      "tok5607": 5622,
      "tok5608": 5623,
      "tok5609": 5624,
      "tok5610": 5625,
      "tok5611": 5626,
      "tok5612": 5627,
      "tok5613": 5628,
      "tok5614": 5629,
      "tok5615": 5630,
      "tok5616": 5631,
      "tok5617": 5632,
      "tok5618": 5633,
      "tok5619": 5634,
      "tok5620": 5635,
      "tok5621": 5636,
      "tok5622": 5637,
      "tok5623": 5638,
      "tok5624": 5639,
      "tok5625": 5640,
      "tok5626": 5641,
      "tok5627": 5642,
      "tok5628": 5643,
      "tok5629": 5644,
      "tok5630": 5645,
      "tok5631": 5646,
      "tok5632": 5647,
      "tok5633": 5648,
      "tok5634": 5649,
      "tok5635": 5650,
      "tok5636": 5651,
      "tok5637": 5652,
      "tok5638": 5653,
      "tok5639": 5654,
      "tok5640": 5655,
      "tok5641": 5656,
      "tok5642": 5657,
      "tok5643": 5658,
      "tok5644": 5659,
      "tok5645": 5660,
      "tok5646": 5661,
      "tok5647": 5662,
      "tok5648": 5663,
      "tok5649": 5664,
      "tok5650": 5665,
      "tok5651": 5666,
      "tok5652": 5667,
      "tok5653": 5668,
      "tok5654": 5669,
      "tok5655": 5670,
      "tok5656": 5671,
      "tok5657": 5672,
      "tok5658": 5673,
      "tok5659": 5674,
      "tok5660": 5675,
      "tok5661": 5676,
      "tok5662": 5677,
      "tok5663": 5678,
      "tok5664": 5679,
      "tok5665": 5680,
      "tok5666": 5681,
      "tok5667": 5682,
      "tok5668": 5683,
      "tok5669": 5684,
      "tok5670": 5685,
      "tok5671": 5686,
      "tok5672": 5687,
      "tok5673": 5688,
      "tok5674": 5689,
      "tok5675": 5690,
      "tok5676": 5691,
      "tok5677": 5692,
      "tok5678": 5693,
      "tok5679": 5694,
      "tok5680": 5695,
      "tok5681": 5696,
      "tok5682": 5697,
      "tok5683": 5698,
      "tok5684": 5699,
      "tok5685": 5700,
      "tok5686": 5701,
      "tok5687": 5702,
      "tok5688": 5703,
      "tok5689": 5704,
      "tok5690": 5705,
      "tok5691": 5706,
      "tok5692": 5707,
      "tok5693": 5708,
      "tok5694": 5709,
      "tok5695": 5710,
      "tok5696": 5711,
      "tok5697": 5712,
      "tok5698": 5713,
      "tok5699": 5714,
      "tok5700": 5715,
      "tok5701": 5716,
      "tok5702": 5717,
      "tok5703": 5718,
      "tok5704": 5719,
      "tok5705": 5720,
      "tok5706": 5721,
      "tok5707": 5722,
      "tok5708": 5723,
      "tok5709": 5724,
      "tok5710": 5725,
      "tok5711": 5726,
      "tok5712": 5727,
      "tok5713": 5728,
      "tok5714": 5729,
      "tok5715": 5730,
      "tok5716": 5731,
      "tok5717": 5732,
      "tok5718": 5733,
      "tok5719": 5734,
      "tok5720": 5735,
      "tok5721": 5736,
      "tok5722": 5737,
      "tok5723": 5738,
      "tok5724": 5739,
      "tok5725": 5740,
      "tok5726": 5741,
      "tok5727": 5742,
      "tok5728": 5743,
      "tok5729": 5744,
      "tok5730": 5745,
      "tok5731": 5746,
      "tok5732": 5747,
      "tok5733": 5748,
      "tok5734": 5749,
      "tok5735": 5750,
      "tok5736": 5751,
      "tok5737": 5752,
      "tok5738": 5753,
      "tok5739": 5754,
      "tok5740": 5755,
      "tok5741": 5756,
      "tok5742": 5757,
      "tok5743": 5758,
      "tok5744": 5759,
      "tok5745": 5760,
      "tok5746": 5761,
      "tok5747": 5762,
      "tok5748": 5763,
      "tok5749": 5764,
      "tok5750": 5765,
      "tok5751": 5766,
      "tok5752": 5767,
      "tok5753": 5768,
      "tok5754": 5769,
      "tok5755": 5770,
      "tok5756": 5771,
      "tok5757": 5772,
      "tok5758": 5773,
      "tok5759": 5774,
      "tok5760": 5775,
      "tok5761": 5776,
      "tok5762": 5777,
      "tok5763": 5778,
      "tok5764": 5779,
      "tok5765": 5780,
      "tok5766": 5781,
      "tok5767": 5782,
      "tok5768": 5783,
      "tok5769": 5784,
      "tok5770": 5785,
      "tok5771": 5786,
      "tok5772": 5787,
      "tok5773": 5788,
      "tok5774": 5789,
      "tok5775": 5790,
      "tok5776": 5791,
      "tok5777": 5792,
      "tok5778": 5793,
      "tok5779": 5794,
      "tok5780": 5795,
      "tok5781": 5796,
      "tok5782": 5797,
      "tok5783": 5798,
      "tok5784": 5799,
      "tok5785": 5800,
      "tok5786": 5801,
      "tok5787": 5802,
      "tok5788": 5803,
      "tok5789": 5804,
      "tok5790": 5805,
      "tok5791": 5806,
      "tok5792": 5807,
      "tok5793": 5808,
      "tok5794": 5809,
      "tok5795": 5810,
      "tok5796": 5811,
      "tok5797": 5812,
      "tok5798": 5813,
      "tok5799": 5814,
      "tok5800": 5815,
      "tok5801": 5816,
      "tok5802": 5817,
      "tok5803": 5818,
      "tok5804": 5819,
      "tok5805": 5820,
      "tok5806": 5821,
      "tok5807": 5822,
      "tok5808": 5823,
      "tok5809": 5824,
      "tok5810": 5825,
      "tok5811": 5826,
      "tok5812": 5827,
      "tok5813": 5828,
      "tok5814": 5829,
      "tok5815": 5830,
      "tok5816": 5831,
      "tok5817": 5832,
      "tok5818": 5833,
      "tok5819": 5834,
      "tok5820": 5835,
      "tok5821": 5836,
      "tok5822": 5837,
      "tok5823": 5838,
      "tok5824": 5839,
      "tok5825": 5840,
      "tok5826": 5841,
      "tok5827": 5842,
      "tok5828": 5843,
      "tok5829": 5844,
      "tok5830": 5845,
      "tok5831": 5846,
      "tok5832": 5847,
      "tok5833": 5848,
      "tok5834": 5849,
      "tok5835": 5850,
      "tok5836": 5851,
      "tok5837": 5852,
      "tok5838": 5853,
      "tok5839": 5854,
      "tok5840": 5855,
      "tok5841": 5856,
      "tok5842": 5857,
      "tok5843": 5858,
      "tok5844": 5859,
      "tok5845": 5860,
      "tok5846": 5861,
      "tok5847": 5862,
      "tok5848": 5863,
      "tok5849": 5864,
      "tok5850": 5865,
      "tok5851": 5866,
      "tok5852": 5867,
      "tok5853": 5868,
      "tok5854": 5869,
      "tok5855": 5870,
      "tok5856": 5871,
      "tok5857": 5872,
      "tok5858": 5873,
      "tok5859": 5874,
      "tok5860": 5875,
      "tok5861": 5876,
      "tok5862": 5877,
      "tok5863": 5878,
      "tok5864": 5879,
      "tok5865": 5880,
      "tok5866": 5881,
      "tok5867": 5882,
      "tok5868": 5883,
      "tok5869": 5884,
      "tok5870": 5885,
      "tok5871": 5886,
      "tok5872": 5887,
      "tok5873": 5888,
      "tok5874": 5889,
      "tok5875": 5890,
      "tok5876": 5891,
      "tok5877": 5892,
      "tok5878": 5893,
      "tok5879": 5894,
      "tok5880": 5895,
      "tok5881": 5896,
      "tok5882": 5897,
      "tok5883": 5898,
      "tok5884": 5899,
      "tok5885": 5900,
      "tok5886": 5901,
      "tok5887": 5902,
      "tok5888": 5903,
      "tok5889": 5904,
      "tok5890": 5905,
      "tok5891": 5906,
      "tok5892": 5907,
      "tok5893": 5908,
      "tok5894": 5909,
      "tok5895": 5910,
      "tok5896": 5911,
      "tok5897": 5912,
      "tok5898": 5913,
      "tok5899": 5914,
      "tok5900": 5915,
      "tok5901": 5916,
      "tok5902": 5917,
      "tok5903": 5918,
      "tok5904": 5919,
      "tok5905": 5920,
      "tok5906": 5921,
      "tok5907": 5922,
      "tok5908": 5923,
      "tok5909": 5924,
      "tok5910": 5925,
      "tok5911": 5926,
      "tok5912": 5927,
      "tok5913": 5928,
      "tok5914": 5929,
      "tok5915": 5930,
      "tok5916": 5931,
      "tok5917": 5932,
      "tok5918": 5933,
      "tok5919": 5934,
      "tok5920": 5935,
      "tok5921": 5936,
      "tok5922": 5937,
      "tok5923": 5938,
      "tok5924": 5939,
      "tok5925": 5940,
      "tok5926": 5941,
      "tok5927": 5942,
      "tok5928": 5943,
      "tok5929": 5944,
      "tok5930": 5945,
      "tok5931": 5946,
      "tok5932": 5947,
      "tok5933": 5948,
      "tok5934": 5949,
      "tok5935": 5950,
      "tok5936": 5951,
      "tok5937": 5952,
      "tok5938": 5953,
      "tok5939": 5954,
      "tok5940": 5955,
      "tok5941": 5956,
      "tok5942": 5957,
      "tok5943": 5958,
      "tok5944": 5959,
      "tok5945": 5960,
      "tok5946": 5961,
      "tok5947": 5962,
      "tok5948": 5963,
      "tok5949": 5964,
      "tok5950": 5965,
      "tok5951": 5966,
      "tok5952": 5967,
      "tok5953": 5968,
      "tok5954": 5969,
      "tok5955": 5970,
      "tok5956": 5971,
      "tok5957": 5972,
      "tok5958": 5973,
      "tok5959": 5974,
      "tok5960": 5975,
      "tok5961": 5976,
      "tok5962": 5977,
      "tok5963": 5978,
      "tok5964": 5979,
      "tok5965": 5980,
      "tok5966": 5981,
      "tok5967": 5982,
      "tok5968": 5983,
      "tok5969": 5984,
      "tok5970": 5985,
      "tok5971": 5986,
      "tok5972": 5987,
      "tok5973": 5988,
      "tok5974": 5989,
      "tok5975": 5990,
      "tok5976": 5991,
      "tok5977": 5992,
      "tok5978": 5993,
      "tok5979": 5994,
      "tok5980": 5995,
      "tok5981": 5996,
      "tok5982": 5997,
      "tok5983": 5998,
      "tok5984": 5999,
      "tok5985": 6000,
      "tok5986": 6001,
      "tok5987": 6002,
      "tok5988": 6003,
      "tok5989": 6004,
      "tok5990": 6005,
      "tok5991": 6006,
      "tok5992": 6007,
      "tok5993": 6008,
      "tok5994": 6009,
      "tok5995": 6010,
      "tok5996": 6011,
      "tok5997": 6012,
      "tok5998": 6013,
      "tok5999": 6014,
      "tok6000": 6015,
      "tok6001": 6016,
      "tok6002": 6017,
      "tok6003": 6018,
      "tok6004": 6019,
      "tok6005": 6020,
      "tok6006": 6021,
      "tok6007": 6022,
      "tok6008": 6023,
      "tok6009": 6024,
      "tok6010": 6025,
      "tok6011": 6026,
      "tok6012": 6027,
      "tok6013": 6028,
      "tok6014": 6029,
      "tok6015": 6030,
      "tok6016": 6031,
      "tok6017": 6032,
      "tok6018": 6033,
      "tok6019": 6034,
      "tok6020": 6035,
      "tok6021": 6036,
      "tok6022": 6037,
      "tok6023": 6038,
      "tok6024": 6039,
      "tok6025": 6040,
      "tok6026": 6041,
      "tok6027": 6042,
      "tok6028": 6043,
      "tok6029": 6044,
      "tok6030": 6045,
      "tok6031": 6046,
      "tok6032": 6047,
      "tok6033": 6048,
      "tok6034": 6049,
      "tok6035": 6050,
      "tok6036": 6051,
      "tok6037": 6052,
      "tok6038": 6053,
      "tok6039": 6054,
      "tok6040": 6055,
      "tok6041": 6056,
      "tok6042": 6057,
      "tok6043": 6058,
      "tok6044": 6059,
      "tok6045": 6060,
      "tok6046": 6061,
      "tok6047": 6062,
      "tok6048": 6063,
      "tok6049": 6064,
      "tok6050": 6065,
      "tok6051": 6066,
      "tok6052": 6067,
      "tok6053": 6068,
      "tok6054": 6069,
      "tok6055": 6070,
      "tok6056": 6071,
      "tok6057": 6072,
      "tok6058": 6073,
      "tok6059": 6074,
      "tok6060": 6075,
      "tok6061": 6076,
      "tok6062": 6077,
      "tok6063": 6078,
      "tok6064": 6079,
      "tok6065": 6080,
      "tok6066": 6081,
      "tok6067": 6082,
      "tok6068": 6083,
      "tok6069": 6084,
      "tok6070": 6085,
      "tok6071": 6086,
      "tok6072": 6087,
      "tok6073": 6088,
      "tok6074": 6089,
      "tok6075": 6090,
      "tok6076": 6091,
      "tok6077": 6092,
      "tok6078": 6093,
      "tok6079": 6094,
      "tok6080": 6095,
      "tok6081": 6096,
      "tok6082": 6097,
      "tok6083": 6098,
      "tok6084": 6099,
      "tok6085": 6100,
      "tok6086": 6101,
      "tok6087": 6102,
      "tok6088": 6103,
      "tok6089": 6104,
      "tok6090": 6105,
      "tok6091": 6106,
      "tok6092": 6107,
      "tok6093": 6108,
      "tok6094": 6109,
      "tok6095": 6110,
      "tok6096": 6111,
      "tok6097": 6112,
      "tok6098": 6113,
      "tok6099": 6114,
      "tok6100": 6115,
      "tok6101": 6116,
      "tok6102": 6117,
      "tok6103": 6118,
      "tok6104": 6119,
      "tok6105": 6120,
      "tok6106": 6121,
      "tok6107": 6122,
      "tok6108": 6123,
      "tok6109": 6124,
      "tok6110": 6125,
      "tok6111": 6126,
      "tok6112": 6127,
      "tok6113": 6128,
      "tok6114": 6129,
      "tok6115": 6130,
      "tok6116": 6131,
      "tok6117": 6132,
      "tok6118": 6133,
      "tok6119": 6134,
      "tok6120": 6135,
      "tok6121": 6136,
      "tok6122": 6137,
      "tok6123": 6138,
      "tok6124": 6139,
      "tok6125": 6140,
      "tok6126": 6141,
      "tok6127": 6142,
      "tok6128": 6143,
      "tok6129": 6144,
      "tok6130": 6145,
      "tok6131": 6146,
      "tok6132": 6147,
      "tok6133": 6148,
      "tok6134": 6149,
      "tok6135": 6150,
      "tok6136": 6151,
      "tok6137": 6152,
      "tok6138": 6153,
      "tok6139": 6154,
      "tok6140": 6155,
      "tok6141": 6156,
      "tok6142": 6157,
      "tok6143": 6158,
      "tok6144": 6159,
      "tok6145": 6160,
      "tok6146": 6161,
      "tok6147": 6162,
      "tok6148": 6163,
      "tok6149": 6164,
      "tok6150": 6165,
      "tok6151": 6166,
      "tok6152": 6167,
      "tok6153": 6168,
      "tok6154": 6169,
      "tok6155": 6170,
      "tok6156": 6171,
      "tok6157": 6172,
      "tok6158": 6173,
      "tok6159": 6174,
      "tok6160": 6175,
      "tok6161": 6176,
      "tok6162": 6177,
      "tok6163": 6178,
      "tok6164": 6179,
      "tok6165": 6180,
      "tok6166": 6181,
      "tok6167": 6182,
      "tok6168": 6183,
      "tok6169": 6184,
      "tok6170": 6185,
      "tok6171": 6186,
      "tok6172": 6187,
      "tok6173": 6188,
      "tok6174": 6189,
      "tok6175": 6190,
      "tok6176": 6191,
      "tok6177": 6192,
      "tok6178": 6193,
      "tok6179": 6194,
      "tok6180": 6195,
      "tok6181": 6196,
      "tok6182": 6197,
      "tok6183": 6198,
      "tok6184": 6199,
      "tok6185": 6200,
      "tok6186": 6201,
      "tok6187": 6202,
      "tok6188": 6203,
      "tok6189": 6204,
      "tok6190": 6205,
      "tok6191": 6206,
      "tok6192": 6207,
      "tok6193": 6208,
      "tok6194": 6209,
      "tok6195": 6210,
      "tok6196": 6211,
      "tok6197": 6212,
      "tok6198": 6213,
      "tok6199": 6214,
      "tok6200": 6215,
      "tok6201": 6216,
      "tok6202": 6217,
      "tok6203": 6218,
      "tok6204": 6219,
      "tok6205": 6220,
      "tok6206": 6221,
      "tok6207": 6222,
      "tok6208": 6223,
      "tok6209": 6224,
      "tok6210": 6225,
      "tok6211": 6226,
      "tok6212": 6227,
      "tok6213": 6228,
      "tok6214": 6229,
      "tok6215": 6230,
      "tok6216": 6231,
      "tok6217": 6232,
      "tok6218": 6233,
      "tok6219": 6234,
      "tok6220": 6235,
      "tok6221": 6236,
      "tok6222": 6237,
      "tok6223": 6238,
      "tok6224": 6239,
      "tok6225": 6240,
      "tok6226": 6241,
      "tok6227": 6242,
      "tok6228": 6243,
      "tok6229": 6244,
      "tok6230": 6245,
      "tok6231": 6246,
      "tok6232": 6247,
      "tok6233": 6248,
      "tok6234": 6249,
      "tok6235": 6250,
      "tok6236": 6251,
      "tok6237": 6252,
      "tok6238": 6253,
      "tok6239": 6254,
      "tok6240": 6255,
      "tok6241": 6256,
      "tok6242": 6257,
      "tok6243": 6258,
      "tok6244": 6259,
      "tok6245": 6260,
      "tok6246": 6261,
      "tok6247": 6262,
      "tok6248": 6263,
      "tok6249": 6264,
      "tok6250": 6265,
      "tok6251": 6266,
      "tok6252": 6267,
      "tok6253": 6268,
      "tok6254": 6269,
      "tok6255": 6270,
      "tok6256": 6271,
      "tok6257": 6272,
      "tok6258": 6273,
      "tok6259": 6274,
      "tok6260": 6275,
      "tok6261": 6276,
      "tok6262": 6277,
      "tok6263": 6278,
      "tok6264": 6279,
      "tok6265": 6280,
      "tok6266": 6281,
      "tok6267": 6282,
      "tok6268": 6283,
      "tok6269": 6284,
      "tok6270": 6285,
      "tok6271": 6286,
      "tok6272": 6287,
      "tok6273": 6288,
      "tok6274": 6289,
      "tok6275": 6290,
      "tok6276": 6291,
      "tok6277": 6292,
      "tok6278": 6293,
      "tok6279": 6294,
      "tok6280": 6295,
      "tok6281": 6296,
      "tok6282": 6297,
      "tok6283": 6298,
      "tok6284": 6299,
      "tok6285": 6300,
      "tok6286": 6301,
      "tok6287": 6302,
      "tok6288": 6303,
      "tok6289": 6304,
      "tok6290": 6305,
      "tok6291": 6306,
      "tok6292": 6307,
      "tok6293": 6308,
      "tok6294": 6309,
      "tok6295": 6310,
      "tok6296": 6311,
      "tok6297": 6312,
      "tok6298": 6313,
      "tok6299": 6314,
      "tok6300": 6315,
      "tok6301": 6316,
      "tok6302": 6317,
      "tok6303": 6318,
      "tok6304": 6319,
      "tok6305": 6320,
      "tok6306": 6321,
      "tok6307": 6322,
      "tok6308": 6323,
      "tok6309": 6324,
      "tok6310": 6325,
      "tok6311": 6326,
      "tok6312": 6327,
      "tok6313": 6328,
      "tok6314": 6329,
      "tok6315": 6330,
      "tok6316": 6331,
      "tok6317": 6332,
      "tok6318": 6333,
      "tok6319": 6334,
      "tok6320": 6335,
      "tok6321": 6336,
      "tok6322": 6337,
      "tok6323": 6338,
      "tok6324": 6339,
      "tok6325": 6340,
      "tok6326": 6341,
      "tok6327": 6342,
      "tok6328": 6343,
      "tok6329": 6344,
      "tok6330": 6345,
      "tok6331": 6346,
      "tok6332": 6347,
      "tok6333": 6348,
      "tok6334": 6349,
      "tok6335": 6350,
      "tok6336": 6351,
      "tok6337": 6352,
      "tok6338": 6353,
      "tok6339": 6354,
      "tok6340": 6355,
      "tok6341": 6356,
      "tok6342": 6357,
      "tok6343": 6358,
      "tok6344": 6359,
      "tok6345": 6360,
      "tok6346": 6361,
      "tok6347": 6362,
      "tok6348": 6363,
      "tok6349": 6364,
      "tok6350": 6365,
      "tok6351": 6366,
      "tok6352": 6367,
      "tok6353": 6368,
      "tok6354": 6369,
      "tok6355": 6370,
      "tok6356": 6371,
      "tok6357": 6372,
      "tok6358": 6373,
      "tok6359": 6374,
      "tok6360": 6375,
      "tok6361": 6376,
      "tok6362": 6377,
      "tok6363": 6378,
      "tok6364": 6379,
      "tok6365": 6380,
      "tok6366": 6381,
      "tok6367": 6382,
      "tok6368": 6383,
      "tok6369": 6384,
      "tok6370": 6385,
      "tok6371": 6386,
      "tok6372": 6387,
      "tok6373": 6388,
      "tok6374": 6389,
      "tok6375": 6390,
      "tok6376": 6391,
      "tok6377": 6392,
      "tok6378": 6393,
      "tok6379": 6394,
      "tok6380": 6395,
      "tok6381": 6396,
      "tok6382": 6397,
      "tok6383": 6398,
      "tok6384": 6399,
      "tok6385": 6400,
      "tok6386": 6401,
      "tok6387": 6402,
      "tok6388": 6403,
      "tok6389": 6404,
      "tok6390": 6405,
      "tok6391": 6406,
      "tok6392": 6407,
      "tok6393": 6408,
      "tok6394": 6409,
      "tok6395": 6410,
      "tok6396": 6411,
      "tok6397": 6412,
      "tok6398": 6413,
      "tok6399": 6414,
      "tok6400": 6415,
      "tok6401": 6416,
      "tok6402": 6417,
      "tok6403": 6418,
      "tok6404": 6419,
      "tok6405": 6420,
      "tok6406": 6421,
      "tok6407": 6422,
      "tok6408": 6423,
      "tok6409": 6424,
      "tok6410": 6425,
      "tok6411": 6426,
      "tok6412": 6427,
      "tok6413": 6428,
      "tok6414": 6429,
      "tok6415": 6430,
      "tok6416": 6431,
      "tok6417": 6432,
      "tok6418": 6433,
      "tok6419": 6434,
      "tok6420": 6435,
      "tok6421": 6436,
      "tok6422": 6437,
      "tok6423": 6438,
      "tok6424": 6439,
      "tok6425": 6440,
      "tok6426": 6441,
      "tok6427": 6442,
      "tok6428": 6443,
      "tok6429": 6444,
      "tok6430": 6445,
      "tok6431": 6446,
      "tok6432": 6447,
      "tok6433": 6448,
      "tok6434": 6449,
      "tok6435": 6450,
      "tok6436": 6451,
      "tok6437": 6452,
      "tok6438": 6453,
      "tok6439": 6454,
      "tok6440": 6455,
      "tok6441": 6456,
      "tok6442": 6457,
      "tok6443": 6458,
      "tok6444": 6459,
      "tok6445": 6460,
      "tok6446": 6461,
      "tok6447": 6462,
      "tok6448": 6463,
      "tok6449": 6464,
      "tok6450": 6465,
      "tok6451": 6466,
      "tok6452": 6467,
      "tok6453": 6468,
      "tok6454": 6469,
      "tok6455": 6470,
      "tok6456": 6471,
      "tok6457": 6472,
      "tok6458": 6473,
      "tok6459": 6474,
      "tok6460": 6475,
      "tok6461": 6476,
      "tok6462": 6477,
      "tok6463": 6478,
      "tok6464": 6479,
      "tok6465": 6480,
      "tok6466": 6481,
      "tok6467": 6482,
      "tok6468": 6483,
      "tok6469": 6484,
      "tok6470": 6485,
      "tok6471": 6486,
      "tok6472": 6487,
      "tok6473": 6488,
      "tok6474": 6489,
      "tok6475": 6490,
      "tok6476": 6491,
      "tok6477": 6492,
      "tok6478": 6493,
      "tok6479": 6494,
      "tok6480": 6495,
      "tok6481": 6496,
      "tok6482": 6497,
      "tok6483": 6498,
      "tok6484": 6499,
      "tok6485": 6500,
      "tok6486": 6501,
      "tok6487": 6502,
      "tok6488": 6503,
      "tok6489": 6504,
      "tok6490": 6505,
      "tok6491": 6506,
      "tok6492": 6507,
      "tok6493": 6508,
      "tok6494": 6509,
      "tok6495": 6510,
      "tok6496": 6511,
      "tok6497": 6512,
      "tok6498": 6513,
      "tok6499": 6514,
      "tok6500": 6515,
      "tok6501": 6516,
      "tok6502": 6517,
      "tok6503": 6518,
      "tok6504": 6519,
      "tok6505": 6520,
      "tok6506": 6521,
      "tok6507": 6522,
      "tok6508": 6523,
      "tok6509": 6524,
      "tok6510": 6525,
      "tok6511": 6526,
      "tok6512": 6527,
      "tok6513": 6528,
      "tok6514": 6529,
      "tok6515": 6530,
      "tok6516": 6531,
      "tok6517": 6532,
      "tok6518": 6533,
      "tok6519": 6534,
      "tok6520": 6535,
      "tok6521": 6536,
      "tok6522": 6537,
      "tok6523": 6538,
      "tok6524": 6539,
      "tok6525": 6540,
      "tok6526": 6541,
      "tok6527": 6542,
      "tok6528": 6543,
      "tok6529": 6544,
      "tok6530": 6545,
      "tok6531": 6546,
      "tok6532": 6547,
      "tok6533": 6548,
      "tok6534": 6549,
      "tok6535": 6550,
      "tok6536": 6551,
      "tok6537": 6552,
      "tok6538": 6553,
      "tok6539": 6554,
      "tok6540": 6555,
      "tok6541": 6556,
      "tok6542": 6557,
      "tok6543": 6558,
      "tok6544": 6559,
      "tok6545": 6560,
      "tok6546": 6561,
      "tok6547": 6562,
      "tok6548": 6563,
      "tok6549": 6564,
      "tok6550": 6565,
      "tok6551": 6566,
      "tok6552": 6567,
      "tok6553": 6568,
      "tok6554": 6569,
      "tok6555": 6570,
      "tok6556": 6571,
      "tok6557": 6572,
      "tok6558": 6573,
      "tok6559": 6574,
      "tok6560": 6575,
      "tok6561": 6576,
      "tok6562": 6577,
      "tok6563": 6578,
      "tok6564": 6579,
      "tok6565": 6580,
      "tok6566": 6581,
      "tok6567": 6582,
      "tok6568": 6583,
      "tok6569": 6584,
      "tok6570": 6585,
      "tok6571": 6586,
      "tok6572": 6587,
      "tok6573": 6588,
      "tok6574": 6589,
      "tok6575": 6590,
      "tok6576": 6591,
      "tok6577": 6592,
      "tok6578": 6593,
      "tok6579": 6594,
      "tok6580": 6595,
      "tok6581": 6596,
      "tok6582": 6597,
      "tok6583": 6598,
      "tok6584": 6599,
      "tok6585": 6600,
      "tok6586": 6601,
      "tok6587": 6602,
      "tok6588": 6603,
      "tok6589": 6604,
      "tok6590": 6605,
      "tok6591": 6606,
      "tok6592": 6607,
      "tok6593": 6608,
      "tok6594": 6609,
      "tok6595": 6610,
      "tok6596": 6611,
      "tok6597": 6612,
      "tok6598": 6613,
      "tok6599": 6614,
      "tok6600": 6615,
      "tok6601": 6616,
      "tok6602": 6617,
      "tok6603": 6618,
      "tok6604": 6619,
      "tok6605": 6620,
      "tok6606": 6621,
      "tok6607": 6622,
      "tok6608": 6623,
      "tok6609": 6624,
      "tok6610": 6625,
      "tok6611": 6626,
      "tok6612": 6627,
      "tok6613": 6628,
      "tok6614": 6629,
      "tok6615": 6630,
      "tok6616": 6631,
      "tok6617": 6632,
      "tok6618": 6633,
      "tok6619": 6634,
      "tok6620": 6635,
      "tok6621": 6636,
      "tok6622": 6637,
      "tok6623": 6638,
      "tok6624": 6639,
      "tok6625": 6640,
      "tok6626": 6641,
      "tok6627": 6642,
      "tok6628": 6643,
      "tok6629": 6644,
      "tok6630": 6645,
      "tok6631": 6646,
      "tok6632": 6647,
      "tok6633": 6648,
      "tok6634": 6649,
      "tok6635": 6650,
      "tok6636": 6651,
      "tok6637": 6652,
      "tok6638": 6653,
      "tok6639": 6654,
      "tok6640": 6655,
      "tok6641": 6656,
      "tok6642": 6657,
      "tok6643": 6658,
      "tok6644": 6659,
      "tok6645": 6660,
      "tok6646": 6661,
      "tok6647": 6662,
      "tok6648": 6663,
      "tok6649": 6664,
      "tok6650": 6665,
      "tok6651": 6666,
      "tok6652": 6667,
      "tok6653": 6668,
      "tok6654": 6669,
      "tok6655": 6670,
      "tok6656": 6671,
      "tok6657": 6672,
      "tok6658": 6673,
      "tok6659": 6674,
      "tok6660": 6675,
      "tok6661": 6676,
      "tok6662": 6677,
      "tok6663": 6678,
      "tok6664": 6679,
      "tok6665": 6680,
      "tok6666": 6681,
      "tok6667": 6682,
      "tok6668": 6683,
      "tok6669": 6684,
      "tok6670": 6685,
      "tok6671": 6686,
      "tok6672": 6687,
      "tok6673": 6688,
      "tok6674": 6689,
      "tok6675": 6690,
      "tok6676": 6691,
      "tok6677": 6692,
      "tok6678": 6693,
      "tok6679": 6694,
      "tok6680": 6695,
      "tok6681": 6696,
      "tok6682": 6697,
      "tok6683": 6698,
      "tok6684": 6699,
      "tok6685": 6700,
      "tok6686": 6701,
      "tok6687": 6702,
      "tok6688": 6703,
      "tok6689": 6704,
      "tok6690": 6705,
      "tok6691": 6706,
      "tok6692": 6707,
      "tok6693": 6708,
      "tok6694": 6709,
      "tok6695": 6710,
      "tok6696": 6711,
      "tok6697": 6712,
      "tok6698": 6713,
      "tok6699": 6714,
      "tok6700": 6715,
      "tok6701": 6716,
      "tok6702": 6717,
      "tok6703": 6718,
      "tok6704": 6719,
      "tok6705": 6720,
      "tok6706": 6721,
      "tok6707": 6722,
      "tok6708": 6723,
      "tok6709": 6724,
      "tok6710": 6725,
      "tok6711": 6726,
      "tok6712": 6727,
      "tok6713": 6728,
      "tok6714": 6729,
      "tok6715": 6730,
      "tok6716": 6731,
      "tok6717": 6732,
      "tok6718": 6733,
      "tok6719": 6734,
      "tok6720": 6735,
      "tok6721": 6736,
      "tok6722": 6737,
      "tok6723": 6738,
      "tok6724": 6739,
      "tok6725": 6740,
      "tok6726": 6741,
      "tok6727": 6742,
      "tok6728": 6743,
      "tok6729": 6744,
      "tok6730": 6745,
      "tok6731": 6746,
      "tok6732": 6747,
      "tok6733": 6748,
      "tok6734": 6749,
      "tok6735": 6750,
      "tok6736": 6751,
      "tok6737": 6752,
      "tok6738": 6753,
      "tok6739": 6754,
      "tok6740": 6755,
      "tok6741": 6756,
      "tok6742": 6757,
      "tok6743": 6758,
      "tok6744": 6759,
      "tok6745": 6760,
      "tok6746": 6761,
      "tok6747": 6762,
      "tok6748": 6763,
      "tok6749": 6764,
      "tok6750": 6765,
      "tok6751": 6766,
      "tok6752": 6767,
      "tok6753": 6768,
      "tok6754": 6769,
      "tok6755": 6770,
      "tok6756": 6771,
      "tok6757": 6772,
      "tok6758": 6773,
      "tok6759": 6774,
      "tok6760": 6775,
      "tok6761": 6776,
      "tok6762": 6777,
      "tok6763": 6778,
      "tok6764": 6779,
      "tok6765": 6780,
      "tok6766": 6781,
      "tok6767": 6782,
      "tok6768": 6783,
      "tok6769": 6784,
      "tok6770": 6785,
      "tok6771": 6786,
      "tok6772": 6787,
      "tok6773": 6788,
      "tok6774": 6789,
      "tok6775": 6790,
      "tok6776": 6791,
      "tok6777": 6792,
      "tok6778": 6793,
      "tok6779": 6794,
      "tok6780": 6795,
      "tok6781": 6796,
      "tok6782": 6797,
      "tok6783": 6798,
      "tok6784": 6799,
      "tok6785": 6800,
      "tok6786": 6801,
      "tok6787": 6802,
      "tok6788": 6803,
      "tok6789": 6804,
      "tok6790": 6805,
      "tok6791": 6806,
      "tok6792": 6807,
      "tok6793": 6808,
      "tok6794": 6809,
      "tok6795": 6810,
      "tok6796": 6811,
      "tok6797": 6812,
      "tok6798": 6813,
      "tok6799": 6814,
      "tok6800": 6815,
      "tok6801": 6816,
      "tok6802": 6817,
      "tok6803": 6818,
      "tok6804": 6819,
      "tok6805": 6820,
      "tok6806": 6821,
      "tok6807": 6822,
      "tok6808": 6823,
      "tok6809": 6824,
      "tok6810": 6825,
      "tok6811": 6826,
      "tok6812": 6827,
      "tok6813": 6828,
      "tok6814": 6829,
      "tok6815": 6830,
      "tok6816": 6831,
      "tok6817": 6832,
      "tok6818": 6833,
      "tok6819": 6834,
      "tok6820": 6835,
      "tok6821": 6836,
      "tok6822": 6837,
      "tok6823": 6838,
      "tok6824": 6839,
      "tok6825": 6840,
      "tok6826": 6841,
      "tok6827": 6842,
      "tok6828": 6843,
      "tok6829": 6844,
      "tok6830": 6845,
      "tok6831": 6846,
      "tok6832": 6847,
      "tok6833": 6848,
      "tok6834": 6849,
      "tok6835": 6850,
      "tok6836": 6851,
      "tok6837": 6852,
      "tok6838": 6853,
      "tok6839": 6854,
      "tok6840": 6855,
      "tok6841": 6856,
      "tok6842": 6857,
      "tok6843": 6858,
      "tok6844": 6859,
      "tok6845": 6860,
      "tok6846": 6861,
      "tok6847": 6862,
      "tok6848": 6863,
      "tok6849": 6864,
      "tok6850": 6865,
      "tok6851": 6866,
      "tok6852": 6867,
      "tok6853": 6868,
      "tok6854": 6869,
      "tok6855": 6870,
      "tok6856": 6871,
      "tok6857": 6872,
      "tok6858": 6873,
      "tok6859": 6874,
      "tok6860": 6875,
      "tok6861": 6876,
      "tok6862": 6877,
      "tok6863": 6878,
      "tok6864": 6879,
      "tok6865": 6880,
      "tok6866": 6881,
      "tok6867": 6882,
      "tok6868": 6883,
      "tok6869": 6884,
      "tok6870": 6885,
      "tok6871": 6886,
      "tok6872": 6887,
      "tok6873": 6888,
      "tok6874": 6889,
      "tok6875": 6890,
      "tok6876": 6891,
      "tok6877": 6892,
      "tok6878": 6893,
      "tok6879": 6894,
      "tok6880": 6895,
      "tok6881": 6896,
      "tok6882": 6897,
      "tok6883": 6898,
      "tok6884": 6899,
      "tok6885": 6900,
      "tok6886": 6901,
      "tok6887": 6902,
      "tok6888": 6903,
      "tok6889": 6904,
      "tok6890": 6905,
      "tok6891": 6906,
      "tok6892": 6907,
      "tok6893": 6908,
      "tok6894": 6909,
      "tok6895": 6910,
      "tok6896": 6911,
      "tok6897": 6912,
      "tok6898": 6913,
      "tok6899": 6914,
      "tok6900": 6915,
      "tok6901": 6916,
      "tok6902": 6917,
      "tok6903": 6918,
      "tok6904": 6919,
      "tok6905": 6920,
      "tok6906": 6921,
      "tok6907": 6922,
      "tok6908": 6923,
      "tok6909": 6924,
      "tok6910": 6925,
      "tok6911": 6926,
      "tok6912": 6927,
      "tok6913": 6928,
      "tok6914": 6929,
      "tok6915": 6930,
      "tok6916": 6931,
      "tok6917": 6932,
      "tok6918": 6933,
      "tok6919": 6934,
      "tok6920": 6935,
      "tok6921": 6936,
      "tok6922": 6937,
      "tok6923": 6938,
      "tok6924": 6939,
      "tok6925": 6940,
      "tok6926": 6941,
      "tok6927": 6942,
      "tok6928": 6943,
      "tok6929": 6944,
      "tok6930": 6945,
      "tok6931": 6946,
      "tok6932": 6947,
      "tok6933": 6948,
      "tok6934": 6949,
      "tok6935": 6950,
      "tok6936": 6951,
      "tok6937": 6952,
      "tok6938": 6953,
      "tok6939": 6954,
      "tok6940": 6955,
      "tok6941": 6956,
      "tok6942": 6957,
      "tok6943": 6958,
      "tok6944": 6959,
      "tok6945": 6960,
      "tok6946": 6961,
      "tok6947": 6962,
      "tok6948": 6963,
      "tok6949": 6964,
      "tok6950": 6965,
      "tok6951": 6966,
      "tok6952": 6967,
      "tok6953": 6968,
      "tok6954": 6969,
      "tok6955": 6970,
      "tok6956": 6971,
      "tok6957": 6972,
      "tok6958": 6973,
      "tok6959": 6974,
      "tok6960": 6975,
      "tok6961": 6976,
      "tok6962": 6977,
      "tok6963": 6978,
      "tok6964": 6979,
      "tok6965": 6980,
      "tok6966": 6981,
      "tok6967": 6982,
      "tok6968": 6983,
      "tok6969": 6984,
      "tok6970": 6985,
      "tok6971": 6986,
      "tok6972": 6987,
      "tok6973": 6988,
      "tok6974": 6989,
      "tok6975": 6990,
      "tok6976": 6991,
      "tok6977": 6992,
      "tok6978": 6993,
      "tok6979": 6994,
      "tok6980": 6995,
      "tok6981": 6996,
      "tok6982": 6997,
      "tok6983": 6998,
      "tok6984": 6999,
      "tok6985": 7000,
      "tok6986": 7001,
      "tok6987": 7002,
      "tok6988": 7003,
      "tok6989": 7004,
      "tok6990": 7005,
      "tok6991": 7006,
      "tok6992": 7007,
      "tok6993": 7008,
      "tok6994": 7009,
      "tok6995": 7010,
      "tok6996": 7011,
      "tok6997": 7012,
      "tok6998": 7013,
      "tok6999": 7014,
      "tok7000": 7015,
      "tok7001": 7016,
      "tok7002": 7017,
      "tok7003": 7018,
      "tok7004": 7019,
      "tok7005": 7020,
      "tok7006": 7021,
      "tok7007": 7022,
      "tok7008": 7023,
      "tok7009": 7024,
      "tok7010": 7025,
      "tok7011": 7026,
      "tok7012": 7027,
      "tok7013": 7028,
      "tok7014": 7029,
      "tok7015": 7030,
      "tok7016": 7031,
      "tok7017": 7032,
      "tok7018": 7033,
      "tok7019": 7034,
      "tok7020": 7035,
      "tok7021": 7036,
      "tok7022": 7037,
      "tok7023": 7038,
      "tok7024": 7039,
      "tok7025": 7040,
      "tok7026": 7041,
      "tok7027": 7042,
      "tok7028": 7043,
      "tok7029": 7044,
      "tok7030": 7045,
      "tok7031": 7046,
      "tok7032": 7047,
      "tok7033": 7048,
      "tok7034": 7049,
      "tok7035": 7050,
      "tok7036": 7051,
      "tok7037": 7052,
      "tok7038": 7053,
      "tok7039": 7054,
      "tok7040": 7055,
      "tok7041": 7056,
      "tok7042": 7057,
      "tok7043": 7058,
      "tok7044": 7059,
      "tok7045": 7060,
      "tok7046": 7061,
      "tok7047": 7062,
      "tok7048": 7063,
      "tok7049": 7064,
      "tok7050": 7065,
      "tok7051": 7066,
      "tok7052": 7067,
      "tok7053": 7068,
      "tok7054": 7069,
      "tok7055": 7070,
      "tok7056": 7071,
      "tok7057": 7072,
      "tok7058": 7073,
      "tok7059": 7074,
      "tok7060": 7075,
      "tok7061": 7076,
      "tok7062": 7077,
      "tok7063": 7078,
      "tok7064": 7079,
      "tok7065": 7080,
      "tok7066": 7081,
      "tok7067": 7082,
      "tok7068": 7083,
      "tok7069": 7084,
      "tok7070": 7085,
      "tok7071": 7086,
      "tok7072": 7087,
      "tok7073": 7088,
      "tok7074": 7089,
      "tok7075": 7090,
      "tok7076": 7091,
      "tok7077": 7092,
      "tok7078": 7093,
      "tok7079": 7094,
      "tok7080": 7095,
      "tok7081": 7096,
      "tok7082": 7097,
      "tok7083": 7098,
      "tok7084": 7099,
      "tok7085": 7100,
      "tok7086": 7101,
      "tok7087": 7102,
      "tok7088": 7103,
      "tok7089": 7104,
      "tok7090": 7105,
      "tok7091": 7106,
      "tok7092": 7107,
      "tok7093": 7108,
      "tok7094": 7109,
      "tok7095": 7110,
      "tok7096": 7111,
      "tok7097": 7112,
      "tok7098": 7113,
      "tok7099": 7114,
      "tok7100": 7115,
      "tok7101": 7116,
      "tok7102": 7117,
      "tok7103": 7118,
      "tok7104": 7119,
      "tok7105": 7120,
      "tok7106": 7121,
      "tok7107": 7122,
      "tok7108": 7123,
      "tok7109": 7124,
      "tok7110": 7125,
      "tok7111": 7126,
      "tok7112": 7127,
      "tok7113": 7128,
      "tok7114": 7129,
      "tok7115": 7130,
      "tok7116": 7131,
      "tok7117": 7132,
      "tok7118": 7133,
      "tok7119": 7134,
      "tok7120": 7135,
      "tok7121": 7136,
      "tok7122": 7137,
      "tok7123": 7138,
      "tok7124": 7139,
      "tok7125": 7140,
      "tok7126": 7141,
      "tok7127": 7142,
      "tok7128": 7143,
      "tok7129": 7144,
      "tok7130": 7145,
      "tok7131": 7146,
      "tok7132": 7147,
      "tok7133": 7148,
      "tok7134": 7149,
      "tok7135": 7150,
      "tok7136": 7151,
      "tok7137": 7152,
      "tok7138": 7153,
      "tok7139": 7154,
      "tok7140": 7155,
      "tok7141": 7156,
      "tok7142": 7157,
      "tok7143": 7158,
      "tok7144": 7159,
      "tok7145": 7160,
      "tok7146": 7161,
      "tok7147": 7162,
      "tok7148": 7163,
      "tok7149": 7164,
      "tok7150": 7165,
      "tok7151": 7166,
      "tok7152": 7167,
      "tok7153": 7168,
      "tok7154": 7169,
      "tok7155": 7170,
      "tok7156": 7171,
      "tok7157": 7172,
      "tok7158": 7173,
      "tok7159": 7174,
      "tok7160": 7175,
      "tok7161": 7176,
      "tok7162": 7177,
      "tok7163": 7178,
      "tok7164": 7179,
      "tok7165": 7180,
      "tok7166": 7181,
      "tok7167": 7182,
      "tok7168": 7183,
      "tok7169": 7184,
      "tok7170": 7185,
      "tok7171": 7186,
      "tok7172": 7187,
      "tok7173": 7188,
      "tok7174": 7189,
      "tok7175": 7190,
      "tok7176": 7191,
      "tok7177": 7192,
      "tok7178": 7193,
      "tok7179": 7194,
      "tok7180": 7195,
      "tok7181": 7196,
      "tok7182": 7197,
      "tok7183": 7198,
      "tok7184": 7199,
      "tok7185": 7200,
      "tok7186": 7201,
      "tok7187": 7202,
      "tok7188": 7203,
      "tok7189": 7204,
      "tok7190": 7205,
      "tok7191": 7206,
      "tok7192": 7207,
      "tok7193": 7208,
      "tok7194": 7209,
      "tok7195": 7210,
      "tok7196": 7211,
      "tok7197": 7212,
      "tok7198": 7213,
      "tok7199": 7214,
      "tok7200": 7215,
      "tok7201": 7216,
      "tok7202": 7217,
      "tok7203": 7218,
      "tok7204": 7219,
      "tok7205": 7220,
      "tok7206": 7221,
      "tok7207": 7222,
      "tok7208": 7223,
      "tok7209": 7224,
      "tok7210": 7225,
      "tok7211": 7226,
      "tok7212": 7227,
      "tok7213": 7228,
      "tok7214": 7229,
      "tok7215": 7230,
      "tok7216": 7231,
      "tok7217": 7232,
      "tok7218": 7233,
      "tok7219": 7234,
      "tok7220": 7235,
      "tok7221": 7236,
      "tok7222": 7237,
      "tok7223": 7238,
      "tok7224": 7239,
      "tok7225": 7240,
      "tok7226": 7241,
      "tok7227": 7242,
      "tok7228": 7243,
      "tok7229": 7244,
      "tok7230": 7245,
      "tok7231": 7246,
      "tok7232": 7247,
      "tok7233": 7248,
      "tok7234": 7249,
      "tok7235": 7250,
      "tok7236": 7251,
      "tok7237": 7252,
      "tok7238": 7253,
      "tok7239": 7254,
      "tok7240": 7255,
      "tok7241": 7256,
      "tok7242": 7257,
      "tok7243": 7258,
      "tok7244": 7259,
      "tok7245": 7260,
      "tok7246": 7261,
      "tok7247": 7262,
      "tok7248": 7263,
      "tok7249": 7264,
      "tok7250": 7265,
      "tok7251": 7266,
      "tok7252": 7267,
      "tok7253": 7268,
      "tok7254": 7269,
      "tok7255": 7270,
      "tok7256": 7271,
      "tok7257": 7272,
      "tok7258": 7273,
      "tok7259": 7274,
      "tok7260": 7275,
      "tok7261": 7276,
      "tok7262": 7277,
      "tok7263": 7278,
      "tok7264": 7279,
      "tok7265": 7280,
      "tok7266": 7281,
      "tok7267": 7282,
      "tok7268": 7283,
      "tok7269": 7284,
      "tok7270": 7285,
      "tok7271": 7286,
      "tok7272": 7287,
      "tok7273": 7288,
      "tok7274": 7289,
      "tok7275": 7290,
      "tok7276": 7291,
      "tok7277": 7292,
      "tok7278": 7293,
      "tok7279": 7294,
      "tok7280": 7295,
      "tok7281": 7296,
      "tok7282": 7297,
      "tok7283": 7298,
      "tok7284": 7299,
      "tok7285": 7300,
      "tok7286": 7301,
      "tok7287": 7302,
      "tok7288": 7303,
      "tok7289": 7304,
      "tok7290": 7305,
      "tok7291": 7306,
      "tok7292": 7307,
      "tok7293": 7308,
      "tok7294": 7309,
      "tok7295": 7310,
      "tok7296": 7311,
      "tok7297": 7312,
      "tok7298": 7313,
      "tok7299": 7314,
      "tok7300": 7315,
      "tok7301": 7316,
      "tok7302": 7317,
      "tok7303": 7318,
      "tok7304": 7319,
      "tok7305": 7320,
      "tok7306": 7321,
      "tok7307": 7322,
      "tok7308": 7323,
      "tok7309": 7324,
      "tok7310": 7325,
      "tok7311": 7326,
      "tok7312": 7327,
      "tok7313": 7328,
      "tok7314": 7329,
      "tok7315": 7330,
      "tok7316": 7331,
      "tok7317": 7332,
      "tok7318": 7333,
      "tok7319": 7334,
      "tok7320": 7335,
      "tok7321": 7336,
      "tok7322": 7337,
      "tok7323": 7338,
      "tok7324": 7339,
      "tok7325": 7340,
      "tok7326": 7341,
      "tok7327": 7342,
      "tok7328": 7343,
      "tok7329": 7344,
      "tok7330": 7345,
      "tok7331": 7346,
      "tok7332": 7347,
      "tok7333": 7348,
      "tok7334": 7349,
      "tok7335": 7350,
      "tok7336": 7351,
      "tok7337": 7352,
      "tok7338": 7353,
      "tok7339": 7354,
      "tok7340": 7355,
      "tok7341": 7356,
      "tok7342": 7357,
      "tok7343": 7358,
      "tok7344": 7359,
      "tok7345": 7360,
      "tok7346": 7361,
      "tok7347": 7362,
      "tok7348": 7363,
      "tok7349": 7364,
      "tok7350": 7365,
      "tok7351": 7366,
      "tok7352": 7367,
      "tok7353": 7368,
      "tok7354": 7369,
      "tok7355": 7370,
      "tok7356": 7371,
      "tok7357": 7372,
      "tok7358": 7373,
      "tok7359": 7374,
      "tok7360": 7375,
      "tok7361": 7376,
      "tok7362": 7377,
      "tok7363": 7378,
      "tok7364": 7379,
      "tok7365": 7380,
      "tok7366": 7381,
      "tok7367": 7382,
      "tok7368": 7383,
      "tok7369": 7384,
      "tok7370": 7385,
      "tok7371": 7386,
      "tok7372": 7387,
      "tok7373": 7388,
      "tok7374": 7389,
      "tok7375": 7390,
      "tok7376": 7391,
      "tok7377": 7392,
      "tok7378": 7393,
      "tok7379": 7394,
      "tok7380": 7395,
      "tok7381": 7396,
      "tok7382": 7397,
      "tok7383": 7398,
      "tok7384": 7399,
      "tok7385": 7400,
      "tok7386": 7401,
      "tok7387": 7402,
      "tok7388": 7403,
      "tok7389": 7404,
      "tok7390": 7405,
      "tok7391": 7406,
      "tok7392": 7407,
      "tok7393": 7408,
      "tok7394": 7409,
      "tok7395": 7410,
      "tok7396": 7411,
      "tok7397": 7412,
      "tok7398": 7413,
      "tok7399": 7414,
      "tok7400": 7415,
      "tok7401": 7416,
      "tok7402": 7417,
      "tok7403": 7418,
      "tok7404": 7419,
      "tok7405": 7420,
      "tok7406": 7421,
      "tok7407": 7422,
      "tok7408": 7423,
      "tok7409": 7424,
      "tok7410": 7425,
      "tok7411": 7426,
      "tok7412": 7427,
      "tok7413": 7428,
      "tok7414": 7429,
      "tok7415": 7430,
      "tok7416": 7431,
      "tok7417": 7432,
      "tok7418": 7433,
      "tok7419": 7434,
      "tok7420": 7435,
      "tok7421": 7436,
      "tok7422": 7437,
      "tok7423": 7438,
      "tok7424": 7439,
      "tok7425": 7440,
      "tok7426": 7441,
      "tok7427": 7442,
      "tok7428": 7443,
      "tok7429": 7444,
      "tok7430": 7445,
      "tok7431": 7446,
      "tok7432": 7447,
      "tok7433": 7448,
      "tok7434": 7449,
      "tok7435": 7450,
      "tok7436": 7451,
      "tok7437": 7452,
      "tok7438": 7453,
      "tok7439": 7454,
      "tok7440": 7455,
      "tok7441": 7456,
      "tok7442": 7457,
      "tok7443": 7458,
      "tok7444": 7459,
      "tok7445": 7460,
      "tok7446": 7461,
      "tok7447": 7462,
      "tok7448": 7463,
      "tok7449": 7464,
      "tok7450": 7465,
      "tok7451": 7466,
      "tok7452": 7467,
      "tok7453": 7468,
      "tok7454": 7469,
      "tok7455": 7470,
      "tok7456": 7471,
      "tok7457": 7472,
      "tok7458": 7473,
      "tok7459": 7474,
      "tok7460": 7475,
      "tok7461": 7476,
      "tok7462": 7477,
      "tok7463": 7478,
      "tok7464": 7479,
      "tok7465": 7480,
      "tok7466": 7481,
      "tok7467": 7482,
      "tok7468": 7483,
      "tok7469": 7484,
      "tok7470": 7485,
      "tok7471": 7486,
      "tok7472": 7487,
      "tok7473": 7488,
      "tok7474": 7489,
      "tok7475": 7490,
      "tok7476": 7491,
      "tok7477": 7492,
      "tok7478": 7493,
      "tok7479": 7494,
      "tok7480": 7495,
      "tok7481": 7496,
      "tok7482": 7497,
      "tok7483": 7498,
      "tok7484": 7499,
      "tok7485": 7500,
      "tok7486": 7501,
      "tok7487": 7502,
      "tok7488": 7503,
      "tok7489": 7504,
      "tok7490": 7505,
      "tok7491": 7506,
      "tok7492": 7507,
      "tok7493": 7508,
      "tok7494": 7509,
      "tok7495": 7510,
      "tok7496": 7511,
      "tok7497": 7512,
      "tok7498": 7513,
      "tok7499": 7514,
      "tok7500": 7515,
      "tok7501": 7516,
      "tok7502": 7517,
      "tok7503": 7518,
      "tok7504": 7519,
      "tok7505": 7520,
      "tok7506": 7521,
      "tok7507": 7522,
      "tok7508": 7523,
      "tok7509": 7524,
      "tok7510": 7525,
      "tok7511": 7526,
      "tok7512": 7527,
      "tok7513": 7528,
      "tok7514": 7529,
      "tok7515": 7530,
      "tok7516": 7531,
      "tok7517": 7532,
      "tok7518": 7533,
      "tok7519": 7534,
      "tok7520": 7535,
      "tok7521": 7536,
      "tok7522": 7537,
      "tok7523": 7538,
      "tok7524": 7539,
      "tok7525": 7540,
      "tok7526": 7541,
      "tok7527": 7542,
      "tok7528": 7543,
      "tok7529": 7544,
      "tok7530": 7545,
      "tok7531": 7546,
      "tok7532": 7547,
      "tok7533": 7548,
      "tok7534": 7549,
      "tok7535": 7550,
      "tok7536": 7551,
      "tok7537": 7552,
      "tok7538": 7553,
      "tok7539": 7554,
      "tok7540": 7555,
      "tok7541": 7556,
      "tok7542": 7557,
      "tok7543": 7558,
      "tok7544": 7559,
      "tok7545": 7560,
      "tok7546": 7561,
      "tok7547": 7562,
      "tok7548": 7563,
      "tok7549": 7564,
      "tok7550": 7565,
      "tok7551": 7566,
      "tok7552": 7567,
      "tok7553": 7568,
      "tok7554": 7569,
      "tok7555": 7570,
      "tok7556": 7571,
      "tok7557": 7572,
      "tok7558": 7573,
      "tok7559": 7574,
      "tok7560": 7575,
      "tok7561": 7576,
      "tok7562": 7577,
      "tok7563": 7578,
      "tok7564": 7579,
      "tok7565": 7580,
      "tok7566": 7581,
      "tok7567": 7582,
      "tok7568": 7583,
      "tok7569": 7584,
      "tok7570": 7585,
      "tok7571": 7586,
      "tok7572": 7587,
      "tok7573": 7588,
      "tok7574": 7589,
      "tok7575": 7590,
      "tok7576": 7591,
      "tok7577": 7592,
      "tok7578": 7593,
      "tok7579": 7594,
      "tok7580": 7595,
      "tok7581": 7596,
      "tok7582": 7597,
      "tok7583": 7598,
      "tok7584": 7599,
      "tok7585": 7600,
      "tok7586": 7601,
      "tok7587": 7602,
      "tok7588": 7603,
      "tok7589": 7604,
      "tok7590": 7605,
      "tok7591": 7606,
      "tok7592": 7607,
      "tok7593": 7608,
      "tok7594": 7609,
      "tok7595": 7610,
      "tok7596": 7611,
      "tok7597": 7612,
      "tok7598": 7613,
      "tok7599": 7614,
      "tok7600": 7615,
      "tok7601": 7616,
      "tok7602": 7617,
      "tok7603": 7618,
      "tok7604": 7619,
      "tok7605": 7620,
      "tok7606": 7621,
      "tok7607": 7622,
      "tok7608": 7623,
      "tok7609": 7624,
      "tok7610": 7625,
      "tok7611": 7626,
      "tok7612": 7627,
      "tok7613": 7628,
      "tok7614": 7629,
      "tok7615": 7630,
      "tok7616": 7631,
      "tok7617": 7632,
      "tok7618": 7633,
      "tok7619": 7634,
      "tok7620": 7635,
      "tok7621": 7636,
      "tok7622": 7637,
      "tok7623": 7638,
      "tok7624": 7639,
      "tok7625": 7640,
      "tok7626": 7641,
      "tok7627": 7642,
      "tok7628": 7643,
      "tok7629": 7644,
      "tok7630": 7645,
      "tok7631": 7646,
      "tok7632": 7647,
      "tok7633": 7648,
      "tok7634": 7649,
      "tok7635": 7650,
      "tok7636": 7651,
      "tok7637": 7652,
      "tok7638": 7653,
      "tok7639": 7654,
      "tok7640": 7655,
      "tok7641": 7656,
      "tok7642": 7657,
      "tok7643": 7658,
      "tok7644": 7659,
      "tok7645": 7660,
      "tok7646": 7661,
      "tok7647": 7662,
      "tok7648": 7663,
      "tok7649": 7664,
      "tok7650": 7665,
      "tok7651": 7666,
      "tok7652": 7667,
      "tok7653": 7668,
      "tok7654": 7669,
      "tok7655": 7670,
      "tok7656": 7671,
      "tok7657": 7672,
      "tok7658": 7673,
      "tok7659": 7674,
      "tok7660": 7675,
      "tok7661": 7676,
      "tok7662": 7677,
      "tok7663": 7678,
      "tok7664": 7679,
      "tok7665": 7680,
      "tok7666": 7681,
      "tok7667": 7682,
      "tok7668": 7683,
      "tok7669": 7684,
      "tok7670": 7685,
      "tok7671": 7686,
      "tok7672": 7687,
      "tok7673": 7688,
      "tok7674": 7689,
      "tok7675": 7690,
      "tok7676": 7691,
      "tok7677": 7692,
      "tok7678": 7693,
      "tok7679": 7694,
      "tok7680": 7695,
      "tok7681": 7696,
      "tok7682": 7697,
      "tok7683": 7698,
      "tok7684": 7699,
      "tok7685": 7700,
      "tok7686": 7701,
      "tok7687": 7702,
      "tok7688": 7703,
      "tok7689": 7704,
      "tok7690": 7705,
      "tok7691": 7706,
      "tok7692": 7707,
      "tok7693": 7708,
      "tok7694": 7709,
      "tok7695": 7710,
      "tok7696": 7711,
      "tok7697": 7712,
      "tok7698": 7713,
      "tok7699": 7714,
      "tok7700": 7715,
      "tok7701": 7716,
      "tok7702": 7717,
      "tok7703": 7718,
      "tok7704": 7719,
      "tok7705": 7720,
      "tok7706": 7721,
      "tok7707": 7722,
      "tok7708": 7723,
      "tok7709": 7724,
      "tok7710": 7725,
      "tok7711": 7726,
      "tok7712": 7727,
      "tok7713": 7728,
      "tok7714": 7729,
      "tok7715": 7730,
      "tok7716": 7731,
      "tok7717": 7732,
      "tok7718": 7733,
      "tok7719": 7734,
      "tok7720": 7735,
      "tok7721": 7736,
      "tok7722": 7737,
      "tok7723": 7738,
      "tok7724": 7739,
      "tok7725": 7740,
      "tok7726": 7741,
      "tok7727": 7742,
      "tok7728": 7743,
      "tok7729": 7744,
      "tok7730": 7745,
      "tok7731": 7746,
      "tok7732": 7747,
      "tok7733": 7748,
      "tok7734": 7749,
      "tok7735": 7750,
      "tok7736": 7751,
      "tok7737": 7752,
      "tok7738": 7753,
      "tok7739": 7754,
      "tok7740": 7755,
      "tok7741": 7756,
      "tok7742": 7757,
      "tok7743": 7758,
      "tok7744": 7759,
      "tok7745": 7760,
      "tok7746": 7761,
      "tok7747": 7762,
      "tok7748": 7763,
      "tok7749": 7764,
      "tok7750": 7765,
      "tok7751": 7766,
      "tok7752": 7767,
      "tok7753": 7768,
      "tok7754": 7769,
      "tok7755": 7770,
      "tok7756": 7771,
      "tok7757": 7772,
      "tok7758": 7773,
      "tok7759": 7774,
      "tok7760": 7775,
      "tok7761": 7776,
      "tok7762": 7777,
      "tok7763": 7778,
      "tok7764": 7779,
      "tok7765": 7780,
      "tok7766": 7781,
      "tok7767": 7782,
      "tok7768": 7783,
      "tok7769": 7784,
      "tok7770": 7785,
      "tok7771": 7786,
      "tok7772": 7787,
      "tok7773": 7788,
      "tok7774": 7789,
      "tok7775": 7790,
      "tok7776": 7791,
      "tok7777": 7792,
      "tok7778": 7793,
      "tok7779": 7794,
      "tok7780": 7795,
      "tok7781": 7796,
      "tok7782": 7797,
      "tok7783": 7798,
      "tok7784": 7799,
      "tok7785": 7800,
      "tok7786": 7801,
      "tok7787": 7802,
      "tok7788": 7803,
      "tok7789": 7804,
      "tok7790": 7805,
      "tok7791": 7806,
      "tok7792": 7807,
      "tok7793": 7808,
      "tok7794": 7809,
      "tok7795": 7810,
      "tok7796": 7811,
      "tok7797": 7812,
      "tok7798": 7813,
      "tok7799": 7814,
      "tok7800": 7815,
      "tok7801": 7816,
      "tok7802": 7817,
      "tok7803": 7818,
      "tok7804": 7819,
      "tok7805": 7820,
      "tok7806": 7821,
      "tok7807": 7822,
      "tok7808": 7823,
      "tok7809": 7824,
      "tok7810": 7825,
      "tok7811": 7826,
      "tok7812": 7827,
      "tok7813": 7828,
      "tok7814": 7829,
      "tok7815": 7830,
      "tok7816": 7831,
      "tok7817": 7832,
      "tok7818": 7833,
      "tok7819": 7834,
      "tok7820": 7835,
      "tok7821": 7836,
      "tok7822": 7837,
      "tok7823": 7838,
      "tok7824": 7839,
      "tok7825": 7840,
      "tok7826": 7841,
      "tok7827": 7842,
      "tok7828": 7843,
      "tok7829": 7844,
      "tok7830": 7845,
      "tok7831": 7846,
      "tok7832": 7847,
      "tok7833": 7848,
      "tok7834": 7849,
      "tok7835": 7850,
      "tok7836": 7851,
      "tok7837": 7852,
      "tok7838": 7853,
      "tok7839": 7854,
      "tok7840": 7855,
      "tok7841": 7856,
      "tok7842": 7857,
      "tok7843": 7858,
      "tok7844": 7859,
      "tok7845": 7860,
      "tok7846": 7861,
      "tok7847": 7862,
      "tok7848": 7863,
      "tok7849": 7864,
      "tok7850": 7865,
      "tok7851": 7866,
      "tok7852": 7867,
      "tok7853": 7868,
      "tok7854": 7869,
      "tok7855": 7870,
      "tok7856": 7871,
      "tok7857": 7872,
      "tok7858": 7873,
      "tok7859": 7874,
      "tok7860": 7875,
      "tok7861": 7876,
      "tok7862": 7877,
      "tok7863": 7878,
      "tok7864": 7879,
      "tok7865": 7880,
      "tok7866": 7881,
      "tok7867": 7882,
      "tok7868": 7883,
      "tok7869": 7884,
      "tok7870": 7885,
      "tok7871": 7886,
      "tok7872": 7887,
      "tok7873": 7888,
      "tok7874": 7889,
      "tok7875": 7890,
      "tok7876": 7891,
      "tok7877": 7892,
      "tok7878": 7893,
      "tok7879": 7894,
      "tok7880": 7895,
      "tok7881": 7896,
      "tok7882": 7897,
      "tok7883": 7898,
      "tok7884": 7899,
      "tok7885": 7900,
      "tok7886": 7901,
      "tok7887": 7902,
      "tok7888": 7903,
      "tok7889": 7904,
      "tok7890": 7905,
      "tok7891": 7906,
      "tok7892": 7907,
      "tok7893": 7908,
      "tok7894": 7909,
      "tok7895": 7910,
      "tok7896": 7911,
      "tok7897": 7912,
      "tok7898": 7913,
      "tok7899": 7914,
      "tok7900": 7915,
      "tok7901": 7916,
      "tok7902": 7917,
      "tok7903": 7918,
      "tok7904": 7919,
      "tok7905": 7920,
      "tok7906": 7921,
      "tok7907": 7922,
      "tok7908": 7923,
      "tok7909": 7924,
      "tok7910": 7925,
      "tok7911": 7926,
      "tok7912": 7927,
      "tok7913": 7928,
      "tok7914": 7929,
      "tok7915": 7930,
      "tok7916": 7931,
      "tok7917": 7932,
      "tok7918": 7933,
      "tok7919": 7934,
      "tok7920": 7935,
      "tok7921": 7936,
      "tok7922": 7937,
      "tok7923": 7938,
      "tok7924": 7939,
      "tok7925": 7940,
      "tok7926": 7941,
      "tok7927": 7942,
      "tok7928": 7943,
      "tok7929": 7944,
      "tok7930": 7945,
      "tok7931": 7946,
      "tok7932": 7947,
      "tok7933": 7948,
      "tok7934": 7949,
      "tok7935": 7950,
      "tok7936": 7951,
      "tok7937": 7952,
      "tok7938": 7953,
      "tok7939": 7954,
      "tok7940": 7955,
      "tok7941": 7956,
      "tok7942": 7957,
      "tok7943": 7958,
      "tok7944": 7959,
      "tok7945": 7960,
      "tok7946": 7961,
      "tok7947": 7962,
      "tok7948": 7963,
      "tok7949": 7964,
      "tok7950": 7965,
      "tok7951": 7966,
      "tok7952": 7967,
      "tok7953": 7968,
      "tok7954": 7969,
      "tok7955": 7970,
      "tok7956": 7971,
      "tok7957": 7972,
      "tok7958": 7973,
      "tok7959": 7974,
      "tok7960": 7975,
      "tok7961": 7976,
      "tok7962": 7977,
      "tok7963": 7978,
      "tok7964": 7979,
      "tok7965": 7980,
      "tok7966": 7981,
      "tok7967": 7982,
      "tok7968": 7983,
      "tok7969": 7984,
      "tok7970": 7985,
      "tok7971": 7986,
      "tok7972": 7987,
      "tok7973": 7988,
      "tok7974": 7989,
      "tok7975": 7990,
      "tok7976": 7991,
      "tok7977": 7992,
      "tok7978": 7993,
      "tok7979": 7994,
      "tok7980": 7995,
      "tok7981": 7996,
      "tok7982": 7997,
      "tok7983": 7998,
      "tok7984": 7999
    }
  }
}